[PAD]
[CLS]
[SEP]
[MASK]
[UNK]
!
"
#
$
%
&
'
)
*
+
,
-
.
/
0
1
2
3
4
5
6
7
8
9
:
;
<
=
>
?
[
]
^
_
`
a
b
c
d
e
f
g
h
i
j
k
l
m
n
o
p
q
r
s
t
u
v
w
x
y
z
{
|
}
~
£
¥
«
²
³
·
¹
ß
à
á
â
ä
ç
è
é
ê
í
ï
ñ
ò
ó
ô
õ
ù
ú
û
ü
##a
##i
##n
##c
##h
##e
##k
##r
##o
##d
##s
##l
##y
##u
##g
##t
##p
##m
##v
##b
##j
##f
##w
##z
##x
##9
##5
##2
##0
##1
##q
##8
##4
##é
##7
##6
##3
##â
##í
##è
##ü
##¹
##ù
##ç
##ó
##ä
##à
##õ
##ú
##ê
##ñ
##á
##û
##ï
th
##ou
you
##er
##in
the
##at
##on
##an
to
##ing
##ll
##or
##en
wh
##es
an
it
##ed
##ow
##ar
##is
##ot
##et
##it
##om
##as
in
that
##ve
##re
##ut
##ay
and
of
he
be
re
we
##ere
me
what
ha
##le
do
##us
##id
##gh
on
##ld
go
is
##ck
sh
##ke
##al
##ght
for
##im
don
kn
st
li
not
##ver
##se
know
this
your
##ic
no
##ad
was
my
##ight
have
##ust
##ir
##ould
##ch
##ith
##ome
##am
##ant
##ent
##ill
##ee
can
with
##oo
but
##ur
##all
##ly
##out
ne
they
##ce
are
##ion
get
so
ab
just
##ter
all
##hing
like
did
##od
out
##ink
##ct
about
##ea
there
want
ll
as
pr
##st
##her
##nd
got
fr
if
ch
she
up
tr
##op
here
think
him
at
##ake
su
##one
any
how
##ell
##ess
##ie
##and
ve
wor
##pp
##ook
one
##est
##ack
de
who
##un
well
some
her
right
see
al
now
##ind
##ore
##il
why
##ain
##ive
##ry
ever
say
look
going
##art
would
yes
or
sa
##ally
##ig
man
oh
lo
tell
##ge
good
##uck
##ard
##if
pl
us
tim
##ist
##ra
##alk
yea
yeah
##os
se
##ul
ex
when
gu
could
his
##ol
##ame
##ong
ar
##ate
##ven
will
com
where
##ast
thing
from
##end
som
##ab
somet
##ound
br
time
##ers
##way
been
let
come
##ick
were
back
mean
##ob
##our
##ear
##ak
##ine
them
sp
didn
##na
then
con
##ice
than
##um
too
every
talk
##itt
had
tw
off
##own
##thing
##lf
may
##ation
car
am
dr
never
something
take
##ous
##ap
##use
ag
##other
way
cl
fuck
##ose
le
call
##ough
ok
en
does
need
work
##ody
##fe
##ort
##be
really
##ri
make
##ty
pe
happ
sure
down
over
##ase
##ittle
af
more
bet
mr
un
qu
##ery
##ause
little
##em
okay
should
by
mo
##ace
bl
##oy
our
gon
##ought
##ople
people
gonna
said
guy
kill
int
has
mu
bec
only
maybe
##ag
##ide
won
##ber
bu
##body
mar
##self
very
##th
sc
##el
two
co
##reat
##iss
hu
##ect
und
##oney
much
day
happen
##ree
under
##eel
##ure
even
year
##ther
anything
wr
##ew
god
##ff
love
##ish
bel
##ip
give
##ving
##ies
because
thank
ask
other
gr
sor
##ity
thought
##ite
nothing
hell
hel
try
sorry
feel
##eep
##ble
night
ro
fir
##ting
wa
find
##wn
new
##act
im
help
doing
sir
jo
into
life
long
again
##ment
##fore
ple
##ue
##ning
rem
before
##ather
put
belie
money
em
after
ma
##ud
must
##pl
still
cr
told
wait
##ich
##ta
##ang
things
gir
##ady
around
po
fri
first
##ade
lea
##der
##ass
these
better
##ance
thr
keep
##ire
last
el
##iz
old
friend
kind
prob
##ways
kid
##per
believe
##ves
sw
cou
always
cour
those
##get
big
##age
##pt
part
years
sm
list
##ool
##atch
##ood
##ence
girl
ad
please
shit
##oss
min
ho
lot
real
great
name
away
isn
##ach
boy
per
uh
##urn
##day
##ile
la
doesn
hey
home
mon
ass
underst
their
##ved
place
bad
##ix
##ac
ac
act
##ise
care
##ft
everything
fl
##ild
miss
hand
stop
remem
listen
##ied
understand
remember
start
play
##ath
sec
supp
##ci
stay
##int
ph
##ep
##og
run
wouldn
course
##ouse
##ory
bus
three
##ord
guess
id
dead
##ond
hear
huh
might
dis
fa
hi
##ull
##qu
##ank
show
##iff
talking
stu
##able
minut
else
made
own
##ater
wrong
wom
##een
mind
##amn
##tain
##ious
##red
leave
tom
##ful
mother
str
father
##ny
ain
fine
##atter
##ans
##pr
ser
##aking
wanted
happened
##sh
head
enough
##oth
house
someone
nice
##ict
##ek
##ey
##lem
mor
done
##ia
gotta
res
yourself
job
through
inter
cra
wasn
##iv
##ock
fucking
par
world
dad
ins
pro
mom
came
getting
##orr
sch
another
##port
##mm
five
##orm
##pect
##akes
left
week
hard
pret
##are
bo
##ions
ya
ton
being
sl
room
saw
##nt
rec
##ught
##ever
##iness
trying
##ave
##itch
##ian
##erson
##ange
##ary
che
##ign
knew
cont
char
war
app
same
went
##dy
turn
meet
##ple
heard
diff
fun
##ated
thanks
comm
matter
son
haven
##ife
looking
##ub
##man
##ctor
##ner
hur
##pen
##enty
four
which
seen
bab
##hn
watch
whole
person
business
##ons
live
##ro
gl
guys
pol
six
coming
bre
fo
word
##ried
##ars
tonight
plan
##ince
##ope
ah
##osed
cle
used
##ph
##orrow
best
fin
john
pretty
quest
walk
att
acc
problem
fam
te
seem
deal
##leep
killed
pre
pay
hour
read
most
da
##xt
##ndred
hundred
idea
inv
##ily
comp
##ually
many
couldn
##ible
men
found
des
##ents
wife
called
ter
##wh
next
har
sit
ten
##zy
says
##my
use
sur
woman
chr
differ
##ail
##ister
once
myself
tomorrow
##ical
##ident
end
without
morning
stuff
##ably
##les
##ett
##ream
##gg
while
far
pa
hold
saying
bar
##orn
cut
bring
jack
yet
school
##anc
##ult
##ors
##ash
few
##ready
cap
damn
##gether
sen
sound
wonder
ago
met
sho
point
baby
already
pick
open
together
since
brother
##ib
##uth
##ason
pres
ey
probably
exact
drink
bea
sleep
child
days
doctor
##anna
stand
took
nobody
ed
##ead
eas
somebody
doll
unt
rest
forget
##ling
crazy
eat
check
##ger
alone
count
jes
today
thir
##ize
case
rel
fig
half
##ial
such
##raid
fif
wants
christ
gone
anyone
dec
die
gi
dar
afraid
##pe
thous
##eak
minute
friends
anyway
thousand
interest
book
exc
##sw
twenty
cause
aren
soon
exactly
##eet
gun
late
month
high
second
##ouble
hot
until
hope
worry
shut
prom
cop
##less
##where
beaut
##ition
break
ca
thinking
hurt
ev
law
knows
supposed
mill
##air
##ither
##son
##right
hello
##iver
jesus
sk
##fect
wanna
##cept
hit
##ying
##ower
bill
face
poss
shot
makes
youn
##oke
##amp
hon
eight
true
##unch
looks
move
minutes
town
working
set
##ness
ap
gen
spe
everybody
story
##ump
family
fight
##ott
ob
##ost
##ating
##by
##rew
mrs
compl
bull
aw
bed
question
answ
trust
lost
sometim
godd
police
married
##ug
luck
heart
sim
actually
num
kids
gra
different
##ings
wish
##ual
happy
whatever
least
pass
gave
##iful
##ared
##ah
bit
ear
##llow
##ork
beh
times
young
##ations
fuckin
hum
expl
both
anybody
##no
ind
conf
having
alright
mur
asked
##ier
##ely
frank
beautiful
##az
##ret
death
hate
##ont
##enc
trouble
cer
inf
door
dream
import
phone
ready
chance
##ned
##ired
cons
easy
col
##uss
je
sy
gets
sign
each
fact
serious
##ress
reason
##ates
send
mine
##more
air
shoot
del
quite
eng
hun
close
pull
change
##cial
speak
light
mil
black
##land
couple
blood
later
##ames
taking
##cc
inst
making
##outh
cor
yours
side
dollars
truth
follow
##reet
##ane
important
fire
mad
dep
star
honey
##ude
ste
##io
det
##ird
##ention
anymore
disc
answer
##ne
beg
sometimes
inc
expect
##unk
everyone
##ipp
telling
mov
hours
##app
buy
sort
lear
##ime
##ens
##its
certain
ret
##av
##ouch
##ins
comes
pict
##ding
##iet
lie
ben
##up
##ert
goddamn
free
water
news
body
ge
goes
din
forg
sick
coll
##uc
sex
funny
##ren
##ax
##ison
ele
##ok
##ward
##ole
##led
##ush
white
mess
suppose
eyes
##ters
##ction
power
sn
tried
either
##ped
def
##olog
fell
alm
inside
dog
number
##eral
means
sal
against
pap
bur
full
though
##inc
##aps
adm
rid
rob
bud
##ient
street
cal
pat
hands
##eric
pie
##sy
captain
game
sent
##ton
es
hus
##ks
##pid
grand
##band
country
murder
its
reg
##ley
touch
americ
party
million
##ject
##hin
ship
husband
women
win
secret
##artment
conc
arr
along
fall
stra
art
drop
waiting
##so
office
stupid
sweet
sing
lik
died
pet
months
wind
thirty
jim
##att
##ief
##oice
pain
##als
excuse
fifty
##ape
leg
almost
sus
##side
sub
##vel
behind
cur
hang
##sel
finish
wear
beat
record
sister
##lin
mag
##ator
##orge
red
daddy
tea
alive
shouldn
##anger
perfect
running
fav
##ms
betw
##ised
city
##ler
between
##ital
##aken
##teen
living
sense
er
##ides
fil
line
figure
bob
started
##00
dra
##ets
dear
##press
##shit
##ured
dinner
sam
##ughter
lady
himself
##ience
mem
drive
nat
##hh
##umb
##ures
build
safe
mus
clean
lou
maj
##ific
##ield
worth
stud
also
seems
order
exper
clear
ra
seven
president
ext
##med
scared
ref
prop
abs
mid
rich
##ys
hair
class
able
chang
test
state
boys
prof
sat
gre
adv
ball
george
##dd
sounds
offic
glad
##haps
feeling
perhaps
bullshit
imp
##ards
##ular
##olut
##ote
happens
lead
unc
write
ahead
trans
ann
front
straight
vis
small
hor
mist
outside
##ior
sell
dest
##ru
##ited
moment
children
wer
##ike
asking
dist
less
##ider
train
compan
dick
med
##itting
rad
weren
bitch
cool
lose
catch
fool
##ense
buck
land
till
weeks
favor
york
##ten
bank
girls
ke
ru
lock
contr
##ows
brought
##ines
##arth
prot
poor
promise
human
special
complet
explain
somewhere
ent
king
surpr
report
##ics
cold
lives
##riend
daughter
fre
inform
save
mas
ow
psy
##aw
##osp
except
ty
imag
shall
psych
key
squ
taken
##ats
brain
movie
dire
add
##erv
near
##ility
possible
fast
##ram
bes
los
mary
pop
dark
cent
##rible
top
thinks
throw
danger
fel
pos
mer
hosp
wall
harry
##omb
past
mouth
norm
##dle
##und
needs
tot
company
kiss
food
goin
##ubl
nick
##ster
dou
oper
##iting
##ount
dress
fair
teach
vi
##ugh
##ony
tired
mark
jer
coff
bother
lucky
wonderful
priv
##ract
##airs
piece
##lie
##ama
##oc
learn
##ship
##gry
##ically
pleas
picture
mart
looked
rather
paul
hospital
##lly
accident
control
nine
##oun
known
cover
words
##uce
leaving
resp
fly
rep
fix
##iew
offer
protect
hotel
##bt
cond
##ps
##room
max
##cent
calling
worked
##iam
##ern
##ative
wal
##erg
quick
pur
##amed
coun
absolut
##fort
super
parents
##ency
##co
kidding
honest
none
##ale
carry
questions
miles
sun
blow
earth
##ift
terr
dan
mich
pen
buddy
step
##uts
playing
stick
##ession
flo
publ
disapp
ought
##ark
jud
##zz
cost
personal
mister
##oul
works
cann
##stem
begin
##unt
park
##ized
interested
system
##ove
press
general
cla
smart
##br
meant
dav
serv
##selves
vict
takes
pal
laugh
coffee
##he
##idence
rock
music
gent
treat
vir
##ones
besides
##eed
attack
ride
spend
##ision
road
certainly
respect
felt
date
drug
joe
bag
##ode
marry
##ists
##igh
##fer
unless
court
seeing
bas
consider
outta
trip
worse
major
mis
others
boss
short
##ately
##ants
clock
simple
talked
absolutely
burn
ray
apartment
tre
##ald
mach
##ze
honor
##ced
jeff
ord
dev
meeting
invol
cry
##lish
paper
chick
turned
cas
##bar
creat
##iot
rose
doin
deep
val
##gan
invest
information
bast
##terday
yesterday
sev
lar
##joy
kick
##ma
swear
eye
giving
aff
##ball
loved
conn
enter
command
ill
##ives
tele
army
gar
##go
smell
cops
cloth
##me
eh
cannot
blue
paid
pack
##ined
fault
charlie
david
ran
##ls
##ene
##ided
grow
feet
##vern
conv
handle
strong
strange
sol
worried
fucked
##ances
ir
##uation
quit
become
cab
div
hop
tough
##ues
##ities
choice
lawy
mention
ups
bir
##ael
sold
dem
lord
pea
bor
##oose
prog
prison
##iving
##die
nothin
assh
breat
##ming
mistake
hist
enjoy
quiet
um
##bor
##inger
pract
##ric
ones
difference
##over
##eth
caught
tick
clothes
bra
anim
plane
dam
jump
sid
##roy
suit
bath
jun
##gr
american
middle
##vin
knock
figured
##vious
gold
boat
kept
lunch
return
changed
hasn
doubt
##ories
reach
given
michael
fut
weird
busy
den
jew
drunk
slow
forty
cross
##ently
clos
##nes
neg
##ully
foot
##ette
walter
store
terrible
fear
tur
##cess
bird
hid
anywhere
##ik
govern
building
private
public
imagine
born
lying
##esh
twel
destroy
birth
twelve
##inal
chief
fed
tv
##ney
bust
liked
##yn
##vers
##ury
appre
cash
du
relax
early
ring
sher
broke
kinda
fifteen
ris
##gn
##itive
bucks
wit
##lex
moving
##ages
base
mama
sand
ta
##ina
careful
watching
mot
form
##irt
suck
lay
longer
comput
killing
radio
dun
##ism
screw
sake
hurry
truck
detect
future
low
commun
wed
respons
bott
piss
sitting
##erve
tor
##illy
##ces
##ov
happening
box
cat
##oof
goodby
uncle
agent
interesting
floor
##ench
##bo
##ety
problems
gentlem
involved
##used
peter
jimmy
bomb
##ium
arm
jail
##oid
acr
appreci
goodbye
##bers
##oken
completely
upset
19
wel
entire
dangerous
history
james
sil
##aa
letter
calls
##ments
situation
ice
fort
##aces
english
occ
##ping
##ilt
card
main
##urity
hmm
##bed
trick
team
possib
bout
##ational
esc
##tin
##uring
hall
##ission
obvious
cir
##igg
wood
dude
fat
van
sudd
sudden
ble
loc
club
darling
##oud
evening
books
mike
self
board
arrest
##ring
##old
officer
nin
##ili
circ
cam
lad
carl
cig
camp
##mas
doc
needed
johnny
third
viol
##come
##orth
natur
sad
security
instead
realize
opp
rom
##stairs
glass
##ray
space
killer
##yle
##ots
##ounds
discuss
jake
##gar
##oup
##ume
colle
green
bought
nerv
belong
dance
wake
nervous
ell
spl
steal
proper
##te
afterno
likes
peace
ce
tem
##ulous
roll
picked
##urs
service
##iter
somethin
finally
college
asshole
afternoon
heal
message
finished
fish
hom
##oint
prod
##aint
account
##night
##uct
shop
fred
bye
fill
##ged
neigh
alex
##mit
island
stri
allow
owe
fol
window
##lfriend
decided
horse
bunch
ger
table
##aven
lawyer
girlfriend
stopped
pictures
connect
across
trave
hardly
bastard
named
soul
track
prep
disappear
tape
##atic
##key
wrote
gee
tast
dumb
##fully
station
emp
voice
lived
neither
lots
totally
age
ver
visit
witness
chur
phil
evil
lu
west
##how
requ
##cut
force
impress
accept
##ogra
##aged
join
staying
forgot
church
##lo
##ices
cow
eve
field
pu
sett
prove
mir
south
sugg
welcome
##aff
forgive
machine
cast
lim
mod
ted
##cri
hero
##cially
cook
##idge
driving
appreciate
##iment
cong
wow
##rey
weap
french
present
##ering
gotten
##ified
missing
eddie
direct
russ
##ipped
apolog
threat
##ills
christmas
color
deliver
corre
calm
av
##etic
heaven
hadn
mac
hungry
wearing
cigar
idiot
##ica
contact
est
partic
##avy
san
##nie
##ination
post
investig
program
government
wild
marri
crime
computer
cell
missed
##mmer
suggest
gard
putting
crim
contin
equ
charge
hide
listening
defin
##ians
usually
dying
##to
princ
##une
standing
enem
fail
department
master
lab
##iest
##ana
##ether
price
amaz
pleasure
##ino
arg
moved
elect
louis
##etch
nose
joke
phot
bow
##eng
##ened
suspect
push
##ann
##arch
surprise
kar
pray
surv
gives
fur
##king
##oon
phys
##tern
suff
papers
pig
song
##xic
##ules
pard
##aine
appear
sea
diffic
depend
##ky
##view
ange
saved
william
america
single
##bi
ground
movies
sail
load
address
##uel
##form
extra
hook
ant
##iday
dig
correct
ways
blame
draw
type
birthday
gas
round
##ogn
sens
records
divor
##uthor
dreams
hol
stuck
neck
##ify
cock
beginning
loves
cred
earl
imposs
detective
op
whether
##ute
roy
##work
talkin
twice
quar
seconds
spec
obs
awful
judge
##la
block
smoke
percent
mission
attention
reading
whose
recogn
experience
silly
##vy
beer
##pecially
especially
cust
relation
##hood
folks
fas
##ature
plenty
cre
fit
yell
##ham
##fuck
planet
impossible
dat
rain
##ius
const
##bit
exam
ridic
band
hy
vac
##friend
plans
intr
paris
walking
fighting
##attle
forever
evidence
##bb
beach
##onel
farm
admit
position
marriage
inno
bro
spir
film
drugs
shar
comfort
fired
partner
pin
notice
starting
promised
gift
mc
mmm
pot
code
gh
tap
##bur
##uten
##icide
spent
boyfriend
acting
tech
dollar
orders
difficult
ju
nuts
##ye
share
guest
##itely
##place
collect
memory
civ
exp
##acy
lieuten
sheriff
pardon
names
sle
wash
using
holy
##uty
##ager
writing
guns
normal
neighbor
crap
wedding
during
tight
##owers
yah
##pens
wondering
brothers
skin
tal
clar
polit
camer
ridiculous
aut
gim
exce
level
appro
relationship
ken
##ution
exist
broken
river
##ograph
aud
rub
##ille
surprised
remind
smok
##den
billy
lieutenant
rent
##au
##uit
asleep
feed
jul
##uff
search
guard
agree
closed
##cious
tax
ther
##ished
tar
##ef
##bs
ourselves
faith
fellow
dump
nor
pil
rick
##iced
keeps
ide
jerry
hen
organ
hole
seriously
finger
##ners
pretend
bathroom
lee
##ron
##ugg
tow
mexic
note
intell
group
crack
host
cute
pan
##zen
##otion
charles
bat
mitch
##lor
franc
tells
moon
##ploy
admir
coo
dor
north
##aked
particular
file
loose
fright
summer
animal
##ires
view
seemed
holding
martin
health
rules
##ka
##boy
##iny
mel
univer
embar
walked
sleeping
amazing
##por
washing
meaning
bal
fant
##itor
##ches
##astic
blind
weekend
lam
nur
odd
angry
chea
plus
pulled
double
thom
##ese
feelings
crash
colonel
danc
fbi
wheel
##irty
butt
##ender
nature
jam
stories
betty
lovely
advice
gimme
cup
mix
##ral
often
spot
##els
profession
tear
bear
proud
##ston
grant
feels
dirty
##men
concer
definitely
mal
port
##ung
buzz
scream
##ption
grace
bobby
victim
##kes
##rop
condition
crew
lang
##par
stole
worst
seventy
risk
jan
sar
repr
tommy
patient
games
##rass
##itude
heavy
rece
herself
scar
innocent
egg
rough
##ai
##ishing
knowing
gettin
##esty
##ended
contract
breakf
civil
nurse
##iant
##que
upstairs
queen
built
##while
##ology
embarrass
##here
##ges
##pap
##itten
keeping
breakfast
author
rout
##row
iss
within
places
agre
area
champ
succ
clim
swim
played
prec
jen
##vision
##wise
necess
somehow
bridge
event
split
crow
subject
opin
##cy
##val
ital
waste
##iel
brown
##ips
##ancy
favorite
locked
virg
devil
credit
##ez
##wood
swe
charac
sixty
##ength
mass
##pped
##iforn
##ries
sym
learned
californ
keys
##ountain
bod
##of
##ises
andy
##icated
##ada
jean
techn
##ss
##gu
convers
pock
grab
obviously
harm
murdered
dunno
##ero
weak
willing
support
turns
##ences
##heart
chicken
##cer
##oop
holly
detail
california
action
ef
##light
shock
scene
common
attract
study
##ruct
gentlemen
match
stock
trial
leon
perform
craw
apart
ly
les
page
##ted
##read
bell
##ander
bruce
simp
magic
possibly
apologize
washington
cheap
##urance
##bert
lately
hiding
custom
ghost
fe
##eg
spee
laur
insane
decide
medical
excell
ber
tree
emerg
warm
ticket
concerned
cree
nah
sooner
taste
settle
effect
##isf
proof
showed
desert
eating
##otten
dropped
complete
freak
television
empty
000
ign
weather
onto
##olf
##ument
##rib
##oyd
smith
senator
copy
training
marty
suddenly
motherfuck
gener
object
corner
henry
success
jour
las
##aced
runs
project
committ
##medi
aye
path
marsh
shoes
drinking
newspap
profess
enemy
tit
##gue
soft
ash
teeth
following
raise
##rick
##oph
grad
immedi
famous
losing
jeffrey
breath
##ford
##za
switch
greatest
career
paying
hanging
30
rap
sight
##yond
beyond
forward
print
arch
otherwise
curious
taught
wes
##itz
fore
##antic
amb
scott
term
purp
pool
##rat
##gas
dont
nope
chair
assist
robert
afford
due
luc
sant
##iat
##ien
##ration
##line
prefer
natural
fle
gal
lic
##amin
##ettes
majesty
lone
rand
yo
##omm
states
##igger
monster
incl
richard
victor
responsible
bond
cous
duty
ug
stone
##ste
sport
desk
sweetheart
rome
ur
ham
noticed
##enth
cars
flight
ident
opinion
simply
bon
sund
heads
character
hat
tie
vide
##town
##ano
stan
incred
fella
data
##nal
##head
##ased
lied
##elly
whoever
discover
susp
spirit
ol
ros
##ki
##let
lloyd
lookin
comb
nightm
##achel
prov
descri
rum
seat
sever
themselves
client
scr
insurance
personally
magaz
satur
claim
dry
mm
size
vol
##ker
thou
bright
helped
##ization
legs
admiral
##stein
mountain
pants
##ena
##icle
##rage
brand
##wards
opport
professor
##field
##ores
##alous
##ils
comin
science
starts
shooting
perfectly
satisf
intellig
opportun
wine
ang
heat
shr
fresh
tru
orig
interview
doctors
decision
large
vacation
introd
hired
##usion
cha
harold
##ibility
emergency
saturday
lind
nail
tour
##time
##arm
##imate
eleven
##iliar
lonely
bigger
laid
mostly
passed
rule
thomas
conversation
dave
ven
##ulations
scient
##iction
concern
boo
gord
lond
##aur
##cr
itself
stat
##ilty
guilty
scare
##othy
garden
gang
wise
##inary
##oned
##icious
letters
employ
checked
##velop
london
mut
friday
suicide
##ula
arri
brit
hearing
appar
attorn
jealous
request
langu
kr
kitch
ram
##ites
##oming
everywhere
matters
familiar
drag
ideas
speech
kitchen
di
jason
pounds
whis
##asons
heh
held
sword
shows
damned
criminal
pocket
attorney
east
rat
##gest
speed
airport
speaking
recognize
eth
gam
mick
ry
rab
##lu
rele
vegas
driver
older
numbers
indeed
director
junior
til
repe
spoke
horrible
##ground
kay
oil
rip
sour
ye
##cus
##da
lift
myster
deg
plant
brad
bug
mail
travel
further
dorothy
hors
wound
##ville
sugar
cares
scot
deserve
hunt
dogs
terrific
repres
fan
##mission
##ening
rev
##lyn
##akin
imm
beauty
positive
bottle
ladies
ugly
10
cit
##ered
##essed
nowhere
design
engine
ban
non
weight
liar
arms
answers
goddam
expert
commander
mexico
sunday
borrow
lines
shhh
stars
soci
expens
remain
mommy
pregn
england
milit
ruin
hoping
camera
virgin
dise
fem
##ees
##mer
react
brill
written
regular
norman
total
closer
bottom
escape
weapons
comfortable
bodies
nar
##ago
strength
practice
broad
purpose
aunt
bay
naw
vill
goodnight
##istic
yep
##inct
##ising
##ality
sometime
lights
madame
sales
balls
property
aust
eur
mood
##house
stom
develop
sees
energ
assign
communic
gentleman
cousin
cy
mcc
wil
theory
##earch
eighteen
secretary
animals
blew
cooper
bite
gall
jac
national
zero
threw
storm
whoa
usual
exe
scri
writer
snow
extre
brains
carrying
congrat
bare
lake
haw
##cha
social
chop
log
mons
watched
excited
sky
##ipping
arrange
distur
pissed
cards
sin
##icy
above
justice
joint
bringing
indian
square
pressure
crying
local
talent
immediately
11
corr
##oat
##asy
meat
poison
depends
truly
##asion
##uses
drove
surr
loud
market
russian
awhile
bum
cream
jos
witch
##orter
upon
manager
helping
believed
biggest
adam
planning
annie
teacher
quickly
##fortun
##board
crowd
dom
##ived
##nel
##eter
unfortun
became
nights
joey
##ache
pair
susan
ba
row
##ients
whom
##eds
reasons
express
spare
leaves
accord
dressed
luke
francis
necessary
gordon
pun
punch
tip
commission
##gged
easier
operation
excellent
citiz
##af
##iers
##ued
##bing
##using
##ids
##sey
research
##apped
magn
mirac
divorce
opportunity
execut
corn
mat
##con
##pir
##ored
sexual
busted
naturally
license
mob
net
flat
tex
sneak
leads
energy
kir
chic
unh
serge
##roll
##gging
federal
professional
ears
map
##ato
tooth
##ida
##itty
aware
followed
expecting
jerk
apparently
language
ment
nic
tall
tun
##asing
shirt
knife
trade
depress
##aker
surely
emotion
breaking
pete
allowed
script
cub
pure
youre
sue
spring
quot
stayed
jacket
pieces
birds
cele
quarter
europe
fund
na
pump
thurs
ate
tryin
assume
shower
opened
eighty
benj
buried
files
refer
mentioned
hollywood
sergeant
patter
##gen
##well
##ades
chap
##elle
whenever
united
ours
appoint
access
expected
legal
neighborhood
celebr
thursday
jon
##va
stew
chem
separ
buff
##anged
grave
defense
center
disappoint
teleph
fortune
hill
mort
ot
##ging
##cks
##oles
leo
coat
understood
serve
##ledge
daniel
princess
smoking
battle
oce
swell
sonny
johnson
signal
milk
bloody
##ipper
includ
20
##vis
stink
someplace
blank
throat
funeral
flying
damage
hm
wire
##bon
##ending
among
plays
medic
turning
weapon
target
represent
hild
hated
lap
vall
##nin
##tor
##tle
##ture
reck
doors
shame
choose
however
saving
century
physical
british
18
lis
##rant
##iner
staff
##ained
guar
letting
blond
desper
picking
bedroom
boring
responsibility
mickey
ryan
##ya
prim
enc
recall
larry
fac
jose
tay
clever
restaur
bullet
forgotten
falling
incredible
guarant
jane
len
##uz
shark
carp
unl
elaine
flowers
babe
freed
danny
strike
faster
mitchell
video
pregnant
disease
brilliant
stomach
benjamin
bones
cart
gay
ms
vamp
wet
##bage
##ita
shape
##osition
##ateful
##empt
thoughts
attitude
baron
behav
powerful
survive
earlier
several
magazine
mall
mater
vul
stab
manage
scre
monday
process
final
streets
burned
destroyed
silver
continue
dancing
motherfucker
jab
##imp
tra
##ilities
inspect
surf
typ
cabin
taylor
nons
rush
dozen
loy
spock
grown
dealing
##ruction
mask
connection
society
nut
nap
##back
anna
##che
lemm
##ement
##inese
psychiat
county
terror
disappeared
tapes
issue
congratulations
nonsense
sally
##rate
##uh
##eding
cancer
butter
trad
trunk
alb
##ipe
roger
kidna
player
selling
enterpr
eggs
according
kane
pink
##ij
##kins
##res
##gie
##father
spell
buying
activ
virus
negot
investigation
frightened
chicago
pattern
hildy
led
puss
tong
##nn
##ror
##erm
anal
trail
##ulation
unf
##izing
smile
disg
concent
changes
prepared
cigarettes
approach
pee
var
##case
##oci
chest
chinese
strang
practically
sidney
negative
baseball
slept
ocean
loyal
lemme
bern
cos
##eal
##mon
stol
alan
tellin
finds
insist
accom
opening
elev
##under
fixed
garage
pers
pear
sna
tail
##itation
##stand
impr
associ
ends
entertain
woods
italian
newspaper
negoti
math
tank
##lig
##lect
lif
##ila
flor
planned
military
dum
fab
nerve
pow
pian
wade
##lt
lies
chances
thinkin
rights
unus
parts
tony
recomm
german
12
fal
junk
jury
##itions
trap
plain
amy
clark
invited
signed
robin
covered
fing
pills
rh
roof
##ha
##down
rever
##ural
ordered
cigarette
therap
joseph
dust
dirt
hire
jap
rod
##iod
##ket
##ders
##ule
##zo
##ini
whore
##cker
shift
saf
##asty
talks
beth
cole
huge
complicated
clearly
created
illeg
arrested
pilot
15
dish
pir
rate
##yl
##uction
knowledge
brief
downstairs
period
charming
compet
simone
sending
##ologist
opera
princip
anti
sweat
unusual
dent
hates
ox
rare
inj
likely
##unce
amount
actor
disp
showing
confused
transfer
occur
hmmm
avoid
royal
agreed
enterprise
cult
eff
fer
rachel
##ym
noise
margo
##olution
nearly
romantic
fasc
behavior
jess
naked
pant
sed
vo
thy
##ceed
##iling
##rap
moves
carefully
laws
complain
cowboy
williams
sailor
yellow
cath
pill
##eday
someday
downtown
partners
holl
sched
sixteen
##ashed
steve
riding
midnight
dim
##iber
theo
toward
style
liqu
france
##iform
finding
emper
##athan
policy
ended
meth
touched
mixed
linda
horses
freedom
diam
fake
tab
##cle
##ex
##oved
##ators
lips
uniform
maid
awake
artist
reput
oughta
circum
committee
restaurant
material
stolen
dies
thief
firm
result
thousands
pulling
clarence
univers
nightmare
emperor
dign
mere
mile
whad
##icate
chain
seal
betray
waited
reality
sla
slight
invite
relig
##ension
paint
experiment
ruined
laughing
garbage
hyp
kenned
repeat
dare
jones
ron
reed
hal
shield
grateful
famil
drinks
confir
hunting
##ucle
ninet
photograph
angel
universe
diamond
gear
wolf
##oot
##ining
##reck
loan
spo
rooms
decent
creature
texas
tongue
ren
vice
##iac
##nis
##esar
##otic
##aster
##vert
chat
underw
heading
jobs
commit
jackie
##ashion
##swald
burning
winter
sisters
tickets
brave
hidden
product
pupp
fantastic
details
bang
lat
opt
woke
yard
##off
##bling
##urt
traff
##itted
realized
intern
genius
##ological
falls
central
sevent
occasion
japan
kennedy
guts
kelly
muse
oswald
##gy
thor
##inate
##enn
##ential
twist
intend
poet
frankly
regret
steph
solid
ellie
foreign
scratch
arrived
grew
##ios
##cl
##eer
##ox
##oll
##erves
whatta
prior
china
drown
clay
uns
##ague
coast
emb
insult
fourteen
passion
instruct
murderer
member
pleased
castle
journal
extrem
telephone
reputation
hoo
nucle
tues
wend
##gl
theater
##verage
wasting
soph
prick
grade
impl
fried
attempt
##etti
brings
breathe
example
intelligence
circumst
families
tuesday
cher
horr
ooo
##can
##kin
knight
cance
##ulate
bure
headed
recover
desire
terms
caesar
millions
learning
official
squad
offered
soldier
progress
congress
sarah
santa
jacqu
pussy
fingers
fancy
fashion
pier
##ieur
spread
invent
growing
glasses
divorced
original
expensive
barely
monsieur
screen
ep
joy
naz
va
##lies
##ona
armed
##abitch
spoken
carter
agency
##bel
score
scary
swing
wondered
passing
confidence
facts
##uced
statement
banks
belongs
assistant
female
miracle
museum
por
pad
tied
##iven
##dom
##vent
##for
##rel
reward
kills
male
assum
bored
temper
equip
karl
cents
gate
nun
##ware
##cher
##iles
##thy
##eless
friendly
##ival
babies
terry
checking
hurts
corpor
defend
loser
##ocol
honestly
kicked
screaming
fought
nasty
##anz
toil
##asure
shad
alth
##agne
resc
cheese
commer
edge
incident
patrick
singing
lesson
counsel
demand
attractive
title
including
valley
reckon
piano
seventeen
nuclear
100
boun
hob
sie
tits
##hip
##oe
libr
##ante
sean
##mmmm
jesse
younger
student
distance
impressed
discovered
equipment
cyn
duck
pity
##ially
##oom
##arily
web
##ushing
##ched
##str
shel
wherever
afric
##agon
coke
kinds
acqu
flesh
fourth
walks
humor
instit
nicky
claire
value
affair
deny
##aaaa
specific
jabez
bound
fag
race
wy
##ca
stood
##eez
##allow
##stone
fro
dece
##iger
permission
understanding
desp
bills
explos
##rupt
counter
trees
ninety
create
##burg
audience
traffic
lous
range
##wich
novel
aside
priest
cho
alarm
##olic
lets
offense
cloud
monkey
badly
shoe
##ception
psycho
loss
convinc
filled
model
guests
tower
victims
appointment
safety
extremely
25
##mother
##bles
##atory
stage
pred
chall
sem
##icks
mayor
##atherine
crit
exciting
motel
screwed
route
ashamed
francisco
although
aven
bun
bart
hay
pour
##ga
gosh
forced
liber
##enture
sayin
section
##icted
sonof
edward
hung
destiny
popular
smells
illegal
cad
dea
mic
matt
anne
prince
##ucker
##ouses
unit
mont
##print
slip
educ
diego
signs
grandfather
secrets
wallet
soldiers
authority
eventually
blonde
cake
##rie
thin
beam
sha
howard
deck
series
capable
spending
miser
##load
introduce
citizen
lisa
bureau
lousy
pitch
tu
ward
##agh
##iar
##ele
##oh
##eration
##kee
chin
chew
coinc
courage
recently
surge
shots
steven
benef
regard
curr
cases
escap
holiday
champagne
##ribly
release
unhapp
desperate
guarantee
gri
mack
miam
nix
piz
wreck
##aid
##mond
##erc
##inated
stamp
##osc
affect
gray
flash
cheer
##road
##phy
##ailable
cutting
points
influ
reasonable
engaged
radi
attacked
lawyers
possibility
autom
source
nineteen
miami
bax
nigger
vinc
##sa
##vard
shake
knees
trace
##iled
qual
##eline
thrown
eliz
reserv
easily
painting
penny
tricks
stealing
loaded
sharp
political
panic
odds
climb
rabbit
emotional
disgust
baxter
cure
diz
lack
rag
rail
##ares
aband
cham
anyhow
agnes
hud
##ivin
bullets
##nold
confer
confident
community
philos
village
medicine
accompl
bible
fishing
mul
ou
powers
tend
tiny
##mans
##ases
bein
beast
repl
wanting
##pping
##icked
union
harder
appl
barbar
knocked
available
ricky
performance
unfortunately
saint
teen
ves
wide
##uing
##erved
toss
reven
fucker
shoulda
moz
league
explan
##ensive
studio
advant
systems
considered
ranch
demon
##ovich
impression
failure
routine
gradu
bail
dip
nurs
##oard
thee
##enna
##ador
aboard
veh
alice
blah
kidd
adj
border
sandwich
creep
shrink
circumstances
sonofabitch
50
diet
fate
liter
nu
os
rack
vada
##zing
theat
whack
chann
deb
contain
##uments
stretch
bread
surg
throwing
reporter
breathing
basement
empire
mirror
sensitive
aim
dud
gain
kat
lor
lun
patch
rib
tub
wid
##cul
##ris
##lus
##inating
lip
pros
sale
guards
comr
##abeth
wayne
resist
proced
warn
finan
barn
standard
handsome
register
refuse
russia
politics
particularly
healthy
laura
chaunce
kirk
jessica
chauncey
batter
cia
pist
peel
vit
vers
##rist
##mo
##isc
reh
dope
stake
trou
dew
lover
season
brian
##agn
thrill
launch
minds
preach
terribly
fifth
oblig
snake
memories
cleaning
experi
trained
walls
casino
enemies
pathetic
recommend
unhappy
gab
gale
mum
nation
nigg
nathan
porn
rope
##mp
##book
##atives
doyle
##imony
fruit
chasing
albert
sacr
exerc
workin
parties
assure
flatter
craig
boston
chriss
miller
confess
determ
members
louise
vision
dickie
jewish
entirely
shopping
ignor
romeo
lenny
toilet
elizabeth
ku
kim
kath
link
lomb
pic
viet
##de
##pher
thumb
anx
##edy
##rees
liz
##ado
frances
suits
##uls
##ability
brook
carried
##rian
becoming
assass
serial
thirteen
interests
trusted
frankie
dreaming
tests
foolish
direction
jews
motor
gardiner
constant
satisfied
mozart
tent
vote
wing
##nam
cand
outf
##iece
##ols
##ittin
clin
helen
crush
apple
capital
cert
bury
fully
admire
purs
based
ordinary
convince
argument
bowling
##ropri
janet
describe
inspector
lombard
bert
cats
dime
gig
tag
ut
##gun
##oted
##iring
exch
spook
##uman
below
owns
##ivid
officers
misery
iron
football
karen
precise
lester
josh
florida
university
ach
catherine
ned
umm
yup
##fle
thel
##esa
##ara
meal
##ales
candy
shelly
lob
conven
marks
helps
puts
minor
focus
metal
highly
compliment
murders
starfle
steady
americans
windows
bags
produc
embarrassing
false
conference
explanation
starfleet
bour
dil
et
hes
hanna
rac
toby
##omes
init
chocol
sac
plate
bless
cru
charley
higher
caused
hits
staring
greg
transport
protection
labor
suspicious
mystery
miserable
dian
kent
ult
##we
button
sheila
##ella
image
fox
instinct
curse
cleaned
parking
jung
narc
schedule
vessel
cere
der
diss
horn
lower
ped
##cil
##rog
##ties
##worth
##anie
##oma
##oms
infect
sheld
trigger
##anda
goodness
clown
underground
cruel
morph
boom
warri
ahh
dawn
goddamned
arranged
doug
claud
prepare
##bbie
champion
pearl
frozen
dall
drew
ric
##caine
##vable
##inting
debbie
##istry
drum
blast
cocaine
crook
swallow
served
warning
hundreds
holds
barry
passport
humili
goddamnit
sexy
robbed
eric
leader
bothering
conduct
counting
##nesday
wednesday
directly
electric
suffering
jeanne
ghosts
tunnel
separate
elevator
apr
cage
fart
kurt
punk
rig
##ique
##kn
##dia
##ts
##bl
toy
rex
neil
##stit
shoulder
scan
mustn
remembered
##ansas
charges
possession
##azz
patients
sweetie
pleasant
virt
lydia
ethan
disturb
therapy
14
gather
hills
pound
##ygen
thats
beck
habit
##oos
##oops
chip
##ieve
##umn
blown
intention
##play
smo
lotta
flag
##cient
recon
##ggy
##anced
retire
grandma
changing
treated
basically
stronger
assholes
swimming
otis
tradition
robinson
oxygen
revenge
advantage
##ropriate
chocolate
dallas
60
fi
rot
sore
whist
##aring
heather
##ication
worm
##ilar
##raft
coulda
unbe
minister
badge
strugg
paran
hurting
barnes
darlin
skip
confession
susie
superman
basic
machines
bastards
slowly
tempor
alexander
successful
ambass
effort
method
average
bump
dy
lyn
navy
##ev
##ktor
review
hack
notes
##sequ
##chan
##outs
##sty
chuck
chase
tries
orange
lois
loving
gods
stops
phill
##plex
barg
stands
##ivers
##ugs
instance
starling
winning
leading
mistakes
viktor
jewel
argue
appears
holes
psychiatrist
wendy
rescue
bars
core
gib
ii
jet
lit
makin
zone
##path
##org
##vey
replace
doe
##lder
golf
noble
woulda
##ifer
bride
conce
march
marge
asks
grandmother
respond
palace
considering
bleeding
homicide
estab
jamie
financial
dough
gut
houses
jeez
tas
zoo
##eb
##rance
##bled
##onica
##enger
##isher
##otch
##reak
haul
stiff
lick
##ician
##illa
neat
##ops
##osing
##ulse
spy
jokes
##ples
##pert
warrant
attend
graham
##enced
madam
robb
misunder
federation
juice
instructions
horror
library
ambassador
ded
dating
gest
pac
##li
##uable
##bid
##inals
##reg
##uther
andrew
beef
stones
##adem
span
env
mole
gross
stroke
warned
restr
budd
raised
bothered
personality
burns
dammit
jumped
duke
occup
ellen
delivery
customers
provide
reaction
chemical
commercial
thelma
bone
bree
kil
mam
soup
tan
wat
##rison
##mber
##omp
stairs
fran
altern
spr
mars
strict
stranger
headache
sounded
events
policeman
dunbar
location
tears
jenny
journey
jacqueline
africa
cob
jill
om
##rated
##lv
##bows
##walk
ancient
inn
inch
##ader
##aming
wore
sav
##ifying
joking
believes
##quis
proceed
senior
lawson
shotgun
setting
engage
depos
kevin
services
freddie
suffer
angeles
volunt
mental
carpent
avenue
coincidence
adjust
claudia
smooth
13
21
cott
ni
##iable
##rake
##ota
reb
ford
forest
##odes
shell
atl
##esth
agg
happiness
unp
marcus
adult
academ
actress
supply
##epend
glory
presence
delight
fellas
darkness
claude
veronica
witnesses
taxi
surrender
convinced
philosoph
diane
dw
digg
fuel
hust
kin
mason
pent
rif
tatt
##fred
heck
mechan
shakes
outa
trapped
alter
alco
arth
agents
becomes
flu
parad
boot
johnnie
checks
decl
worrying
individ
protecting
governor
fortun
species
collection
degree
degrees
surface
lifet
shadow
influence
cri
cave
oz
wings
##uva
##erk
##aries
##isions
##rell
##ays
##oooo
ability
pride
chart
dean
seek
alien
sew
##agger
belt
##udy
cris
##quir
dealer
pays
senate
ships
article
testify
distr
reports
rocks
former
torture
violence
coward
colored
bowl
received
revolution
virginia
wyatt
exchange
unbelie
alcoh
40
cable
fee
jus
mant
oak
##bits
##onse
##enge
steel
steak
##ura
chee
tri
##opard
suz
debt
manner
##race
##osite
exit
clue
cliff
schem
precious
editor
giant
billion
movement
began
##lines
testimony
pops
valuable
package
neighb
settled
estate
embarrassed
lucy
##prints
escaped
barbara
theatre
outfit
dull
faces
pit
sink
von
##hib
##wray
##arian
shore
##acks
hers
complex
spill
remark
supper
##onscious
glenn
eaten
skull
independ
column
patience
privile
device
reached
closing
negro
turkey
elliot
failed
sympath
assignment
occurred
vincent
chamber
mulwray
hannah
paranoid
17
45
cu
gary
han
stor
prize
##ryn
sab
lex
worker
intent
askin
##bley
##action
flow
struck
moral
related
indust
instant
salv
##hhh
cryst
silence
existence
scotch
network
underwear
webster
pizza
jungle
bargain
establish
24
bi
bul
hitting
ira
kansas
ruth
sire
takin
##moon
##vest
##vity
##xx
beating
dod
forth
neut
truman
plastic
##rael
##ulf
lect
##ortion
helluva
poem
##izes
supplies
useful
capt
figures
breaks
genes
honeymoon
refr
marylin
teaching
costs
parker
sandy
freddy
geez
lampert
committed
sports
mountains
intelligent
japanese
##force
cotton
arthur
individual
bol
ease
gus
gitt
mate
nest
roth
raz
##nifer
##ua
##gent
##ww
##xual
shown
wanta
ath
deeds
consequ
everyday
marvel
wave
stopping
secure
boots
function
planes
highway
hearts
begins
announ
##ocr
palm
treating
basket
golden
duff
sucks
teddy
washed
jennifer
newspapers
western
vampires
pirate
gittes
dee
etern
mck
nort
rape
##egr
anth
weal
soap
alley
trash
herr
compr
cared
scen
actual
handed
mighty
chris
satan
mercy
maxine
solution
berlin
loyalty
snap
railroad
exercise
hint
lung
pip
##aign
anger
##itlin
##verly
##eeze
ast
alvy
willie
background
##rier
grady
joined
waitress
##cience
##roit
breast
prevent
caitlin
detroit
retired
touching
singer
beside
##unders
territ
treasure
sucker
puff
delivered
cockta
aid
git
hood
pas
tam
vince
yards
##cile
thick
##etta
height
whats
forces
##icles
frame
anytime
##essa
exists
clo
perman
flower
moron
promotion
##otted
conscience
burgl
admin
sentence
legend
psychic
jersey
creatures
packed
prisoner
enjoyed
campaign
ignore
angle
ripley
unlike
dignan
comrade
pistol
jewelry
lifetime
cant
il
lula
rude
##rit
##oes
##ois
##mar
##ckey
##iro
managed
##osen
spar
spect
clients
mud
scale
grass
musta
flies
harvard
hitler
dreamed
salt
patr
##ification
##yster
##aws
meantime
treatment
crossed
closet
document
pushed
appearance
julie
juliet
pretending
symb
fleet
salesman
austin
surround
liquor
brooklyn
precisely
200
fever
hitch
ja
rise
sack
tone
##nat
##hold
##sucker
ing
##ications
sov
trib
##pper
manh
##oses
gum
##umont
pean
killers
scra
homework
phony
bush
stress
resign
prem
useless
barr
beaumont
salad
students
profile
satell
adventure
kissing
investment
returned
mikey
homer
germans
connected
nightmares
whiskey
executive
strangers
slaughter
nixon
hudson
vehicle
surgery
district
unbelievable
bald
hatch
jazz
nik
rank
wis
yess
##car
##rase
##pa
##esp
beverly
israel
##iments
stall
##icing
chosen
atta
defe
saunders
##igan
sector
concept
feelin
laund
monitor
interf
tons
awfully
grail
deputy
answered
collar
filthy
profit
locker
affairs
computers
organization
fantasy
italy
weakness
scientists
statue
wounded
depressed
reverend
merely
twisted
##known
neighbors
bachel
ian
kit
kate
poo
pages
rug
tune
wand
##cing
##craft
##gers
##aton
toast
##imum
atm
alert
manners
##ears
spit
unknown
imper
remove
fletch
mornin
booth
slipped
contest
factory
delay
fallen
subs
beats
frequ
imagination
kissed
paulie
trem
solve
opposite
limit
threatened
pigs
balt
granted
attracted
designed
fabulous
principal
cancel
surgeon
disgusting
lunatic
cem
cuz
fence
hou
hut
mig
tut
vick
##rand
##low
##jack
##erick
##any
##esc
##aya
shout
chill
blade
##aging
wrest
elvis
assa
##quar
moments
boats
wars
appeal
pale
conspir
colon
freeze
messed
advance
media
exception
response
walt
jumping
strip
construction
farmer
potential
julia
stanley
concentrate
sieu
channel
anxious
envir
carpenter
500
bend
gree
hump
pushing
rust
rotten
wives
##oves
##uous
##omic
bee
##ading
##hern
sheets
coach
dism
owner
parole
schw
appropriate
glor
skipper
deton
incre
salary
legit
films
worthless
raw
uncom
lessons
tyler
offering
dana
convent
discussion
##ographer
cells
drawing
reminds
agreement
scotty
vulcan
fascinating
procedure
april
##otchka
cripp
storage
iraq
00
22
bing
bid
hank
kram
wicked
##lock
youth
##ashing
##idate
knee
therefore
units
quality
##eman
##thia
poker
owned
struct
internal
charged
warren
polite
payment
edie
evan
wishes
earn
concert
lands
laughs
dennis
modern
##uggie
technical
crawford
whisper
remains
analy
international
epis
counselor
cynthia
choices
abandoned
robbery
marvelous
kramer
dill
furn
jur
malk
vin
##away
##col
##eu
##wright
wha
item
##ari
inse
##irm
prose
chose
##osal
##oster
werew
##apt
##beat
poll
asses
##acity
listened
sits
jackson
christian
bodygu
owes
victory
teleg
convention
irish
ninotchka
tempt
impressive
photo
dumped
scientist
mysterious
bugs
unfortunate
disappointed
powder
religious
poetry
invented
shelter
radiation
dewey
vietnam
spanish
comprom
bachelor
environ
malkovich
aug
auggie
batt
greet
gorge
nan
nerves
pup
ripped
sides
wig
##ec
##yard
##ba
##oura
##era
##ora
##esy
anesth
##omy
reve
rebe
reception
dool
tran
##ables
spark
dram
enorm
blows
firing
waitin
##izz
coupl
sons
conscious
synd
valent
suitcase
june
196
silent
violent
homes
tastes
leonard
communications
kidnapped
##standing
bunny
education
confidential
sacred
buddies
digging
enormous
bog
dial
mult
wyn
##mur
##mate
chim
veget
timing
##osph
guide
spin
didnt
##aph
quote
scout
grun
belief
friendship
signature
patri
##attan
mistaken
selfish
properly
threatening
prayer
##burger
lamb
effects
random
krist
institution
challenge
critic
reservation
warrior
aggress
rifle
cemet
gorgeous
dut
dna
fits
nam
option
rings
sinc
tin
tact
vig
wip
yuh
##ked
##onn
##arter
##otes
weir
hah
forbid
knox
lion
##sem
##adel
sup
summ
deer
##ifice
##uled
##endid
bluff
couch
smarter
stays
opens
fighter
favour
entit
squeeze
fairy
ordell
enjoying
brace
trucks
communist
escort
roman
blocks
yelling
mmmm
objection
assigned
vampire
culture
voices
options
preacher
academy
environment
dug
fog
fond
gill
mosc
pipe
yu
##dra
##uits
##gment
##po
##min
##vo
##inates
tod
toler
##arn
wears
shaw
stalk
stream
##icient
##eau
fry
##eller
alph
##osa
##oln
spray
drank
coord
afterwards
sweep
handled
disaster
schm
slave
##anca
discip
freezing
operations
##onym
##fortable
steps
judy
basis
chicks
hoped
limits
threaten
electr
songs
mcmur
balance
technology
prints
punish
widow
version
sheldrake
crisis
assault
uncomfortable
mcmurphy
35
dict
dates
dyn
linc
luther
oct
oath
ross
##cast
##eus
##kind
##ses
##uary
##zer
##asant
hallow
hammer
##leans
##idal
shaking
traged
##ello
alfred
orleans
##ucky
uses
##abl
intim
waves
hears
highest
simon
bitter
memor
buildings
studying
advise
destruction
sticks
suggestion
skinny
raped
expenses
crystal
doolittle
entitled
moscow
lincoln
faint
lt
ny
vic
wander
##aud
##got
##bird
##win
##llie
##itect
##ombley
inject
reject
shu
yourselves
neur
plat
##osis
guilt
arnold
twombley
integr
joan
crank
adop
acted
slut
recru
finest
deals
daily
harbor
counts
pulls
messages
paine
transmission
catching
normally
evelyn
quarters
creasy
spirits
audition
mexican
laurie
architect
urgent
identify
goddammit
complaining
catholic
betrayed
shields
stephen
cherry
nazi
loretta
clinic
kurtz
anthony
prosecut
23
ace
nancy
pony
rang
tis
wad
wally
##sch
##wr
##inity
##itors
belly
isol
noon
##uries
suite
sulu
##ppy
##ilton
orch
spider
drill
lean
mock
intended
##berg
bund
swore
swamp
##aches
permit
headquar
paras
warp
preys
shuttle
gene
earned
steam
##iety
eleph
ess
sammy
grey
offices
dickson
council
superior
marrying
casual
practical
tracks
criminals
hostile
receive
crawling
customer
generous
combat
introduced
venice
cooperate
citizens
unfair
diamonds
corporate
liberty
chrissake
task
soviet
cemetery
headquarters
bent
hose
kong
lon
una
##ront
##uine
##vant
##born
##foot
##zel
##otta
##oman
##imore
stir
##icop
myth
butch
##urd
maniac
##raction
exha
arc
backwards
maya
lew
helicop
role
helpful
joanna
crane
cheat
teresa
shove
##ibly
relative
possess
genuine
similar
snoop
papa
budget
##ysis
visiting
entrance
reported
entering
maintain
pige
extraord
hooker
intellect
martini
issues
victoria
combination
cuba
chapter
persu
results
photographs
##lusive
sacrifice
temporary
manhattan
baltimore
reveal
tragedy
exhaust
16
aids
ooh
pimp
si
viv
wiz
##mail
tore
##oring
anch
meas
dock
##idents
goose
shh
outl
tripp
troops
##ieved
##iels
worries
safer
##olved
compens
bran
lebows
gram
removed
##acht
active
controll
charm
##dya
foley
invis
forgetting
eats
decisions
passage
india
sentiment
erin
worthy
merle
purse
casabl
seventh
garrison
publicity
splendid
accounts
potato
civilization
crawl
narrow
developed
rowan
expression
sealed
latest
deaf
benefit
grip
graduate
dipl
kiddin
genesis
territory
august
wynant
preysing
lebowski
casablanca
ay
ditch
faced
gag
hunch
kings
rats
tiger
##ias
##oir
##don
##bly
##bie
##llo
##ete
##iding
sheep
stunt
##aded
##cho
socks
driven
unre
scam
writ
groc
helm
swed
##shot
morgue
worlds
cheating
polish
##phia
ending
deliber
instr
incon
winner
arrive
hairy
classes
explained
repair
purple
suns
daniels
gentle
division
busting
philadel
accepted
slee
flew
suspic
scientific
hawk
arrangements
panther
spoil
ouch
troubles
strictly
werewolf
coupla
dynam
halloween
philadelphia
cind
dame
givin
hyster
lane
mand
nom
ras
riot
ske
site
yan
##lane
##gues
##pting
##bag
##fl
##ania
anonym
havin
goof
shith
sheet
orph
plot
sequ
exhib
comic
##obe
clerk
needn
marquis
##ishop
grat
pole
##assy
greater
##ogs
##shire
morgan
apply
cleared
##ggie
skill
humans
syn
coron
retard
studied
fools
operate
bothers
floating
packing
##grim
doubts
feds
boxes
vanessa
clubs
folk
custody
rubber
hostage
necessarily
harmless
ambul
origin
disturbed
magnific
bernstein
religion
current
initi
scheme
telegram
cunt
econ
fian
ginger
jed
mim
mun
nich
nav
tat
wra
##com
##ko
##lot
##pear
##bal
shitty
lily
##ament
##stick
suc
debor
plug
select
comment
brut
##osexual
envy
##rix
##rial
unique
scully
thrust
handling
players
runnin
complaint
straw
subst
refused
reflect
impulse
unconscious
transl
dressing
conditions
laughed
torn
violin
production
requires
##cription
crimes
sailing
sharks
dragon
wilson
gallagh
terrorists
pierce
lobby
shakespear
patrol
invisible
deborah
gallagher
shakespeare
gy
nas
pud
tale
yacht
##iance
##hi
##lict
##bac
##ja
toe
##iture
inher
rein
shy
fork
liver
##urice
soda
frida
upper
seattle
##ulated
exped
exagger
##itts
lec
peggy
bloom
waiter
string
interrog
momma
businessman
relatives
fights
blackmail
corle
bene
election
drawn
draft
proposition
distract
radar
landing
ruiz
merc
merry
covers
parked
hopeless
turk
bleed
traveling
continued
pilgrim
ideal
batman
receip
shocked
santos
##leton
rumors
monsters
traum
confirmed
fashioned
acquaint
determined
convenient
deposit
philosophy
neutral
conspiracy
##osphere
cattle
dway
kyle
lame
mi
voy
##ras
##oan
##ffe
##wire
##isy
##veill
frust
##opp
saav
plates
seats
fucks
##pton
perp
lawn
strain
invitation
compass
capacity
highness
explo
engines
speaks
collea
dropping
horiz
merrick
norma
republ
##cover
creative
kicking
motion
motive
violet
peaceful
produce
photos
survived
obsessed
clarice
kenny
malcol
scares
sympt
generally
incredibly
concerns
yeh
extreme
carpet
bernie
entertainment
confirm
puppet
barton
nurses
prospect
waters
independent
consequences
cocktail
peanut
yessir
furniture
extraordinary
corleone
dwayne
saavik
malcolm
length
moss
ware
wrap
##hole
##ken
##rad
##sion
##lon
##zlo
whip
##othing
##otions
##itated
inner
hem
rear
##aly
cany
pra
##essler
##ryl
##artz
brick
brush
meanwhile
workers
emily
crown
acid
flip
phones
strate
interrupt
craz
personnel
accused
edgar
decor
obst
indians
murray
burke
##lina
samuel
annoy
locks
vienna
judgment
tort
198
circuit
ruby
feeding
searching
magazines
booze
diary
gamble
josie
reverse
privilege
dramatic
wizard
fianc
lecter
##veillance
republic
gaz
kal
kip
kling
nuth
pose
pile
rode
sig
tips
wins
##now
##do
##ds
##uf
##gage
##pes
##pson
##power
tool
##itate
weed
weigh
##alie
forms
donald
neph
abuse
##tery
frag
##elli
worship
##pps
ohio
ohhh
plague
##istration
##enda
carr
carol
envel
happily
shoulders
mulder
##agers
beloved
inspir
beings
cheated
meetings
##pense
sixth
##what
cav
bits
franklin
corp
starving
forgiven
muscle
propose
absurd
kingdom
wallace
##zzle
convict
torped
##oids
possibilities
require
cooking
constit
taxes
thompson
chairman
include
celebrate
activity
negotiate
competition
slightest
explosion
racket
producer
rico
molec
paradise
alcohol
symbol
laundry
structure
magnificent
envelope
bike
cried
dyle
fame
fuss
fats
hip
kend
mush
penc
pals
ripper
ss
##lers
##put
##enstein
whales
begging
goal
donnie
livin
lila
##ici
wasted
##char
assem
prime
sphere
drives
enforce
scumb
##ueger
emotions
##uder
playin
guessed
display
resent
charity
gloves
ahhh
tennis
surveillance
##ials
##encies
sends
begun
grandpa
curios
musical
classic
##artha
##zech
deeper
severe
prisoners
closest
homosexual
russians
physically
##burgh
melanie
fantas
laser
krueger
borrowed
logical
corru
matth
steward
stinks
dentist
temperature
##stitute
cobb
suzie
sabot
interfere
houston
helicopter
scumbag
ape
czech
dix
ferg
ganz
jay
ko
kl
lance
nag
rans
sic
uta
##rome
##diction
##xim
##orters
##itar
haunt
shed
sting
stacy
##eeee
neo
sof
##inky
##store
##unction
lovers
seym
##ulting
guin
##ums
amate
fuckers
gran
smiling
uhh
laz
interfer
parr
insp
##nerable
colors
sorta
##oleon
concl
safely
leaders
annivers
smaller
distress
fooled
contrary
informed
absolute
penis
penet
sticking
tread
involve
##balls
entered
quietly
sucking
laying
locate
violation
discussed
physics
angels
cameras
auto
hostages
creek
laszlo
rumor
gambling
mccoy
bait
blanket
napoleon
transferred
##belik
montana
kubelik
engagement
satellite
wandering
atmosphere
schwartz
juris
curiosity
utah
seymour
anniversary
99
dub
eg
jere
kh
luthor
pike
tang
vib
wagon
##cles
##hand
##ux
##fly
##ourage
tobac
whores
ank
##itable
whatcha
##aline
chan
sum
##ookie
##ested
comedy
##umber
##ummy
carbon
lemon
callin
mug
##berry
bela
puttin
maf
leak
smugg
missiles
phrase
disks
recent
deserved
thirsty
promises
skirt
questioning
gravity
behave
##cca
retrie
maggie
##umbo
protected
treaty
sucked
screwing
bombs
##rington
circus
romance
apology
electron
observ
recognized
effective
marshal
bonds
description
status
naive
primitive
mallory
improve
liquid
ronnie
spoiled
assuming
assumed
episode
valentine
deliberately
succeed
canyon
nephew
matthew
tobacco
ax
epps
foul
fisher
kring
mong
pitts
rage
sittin
vent
##rd
##rup
##bow
##bell
##ít
rey
withdra
##ooo
##tering
chess
trav
manif
plumb
seb
coma
##ously
clothing
leopard
marie
undress
root
acce
actions
handy
understands
parent
compared
presume
simpl
airline
##ieth
subway
##ificant
landl
covering
deeply
democr
damaged
jewels
carlos
heroin
suffered
gifts
july
melt
grabbed
##anoff
engineering
jacob
logic
facility
typical
dishes
injured
slightly
literally
morpheus
gesture
pacific
tattoo
razor
surrounded
wisdom
bodyguard
lewis
jedi
jurisdiction
80
bac
cities
egy
fiction
hind
hans
maker
rm
sins
##hill
##rating
##dale
##lante
##gir
##mouth
##mony
##vor
##far
##wald
##reh
beans
reass
wee
shred
shave
##alf
##ira
##illac
alt
alike
sel
bron
backs
conqu
leather
unex
que
bub
maranz
underne
writes
joel
adele
mini
##daya
##iley
##quet
##attered
slim
contrib
apples
compound
meters
halfway
causes
ski
differently
consum
milo
madman
sorts
defensive
proposed
tested
straighten
visual
fooling
nickel
privacy
pengu
raymond
honored
creator
iris
histor
programmed
suspected
##chester
customs
creeps
randy
hamburger
claims
brandon
nailed
mutual
engineer
laplante
types
trailer
cosm
associate
tables
cadillac
tube
dudley
rehears
certific
ceremony
whistle
##natural
dismiss
aggressive
ambulance
perpet
egypt
underneath
ack
biz
cly
clem
dive
dread
dante
gin
gym
jody
mast
martha
wired
##eous
##lah
##uana
##mates
thea
##orse
##rels
bears
dolor
##kel
##imm
##imeter
chet
tramp
##opath
sauce
##ola
##astian
bren
mayo
molly
muff
##the
undercover
probation
##ogue
owners
mothers
slap
chron
picks
presents
exclusive
award
burst
burger
arrog
drops
filed
advanced
officially
impact
bitches
marked
coffin
reporters
penn
rocky
attacks
larger
kicks
connell
halluc
circle
opposed
rolling
strikes
directions
investigating
investigator
equal
cocksucker
francs
matches
lifted
communication
commissioner
matrix
##ijuana
analysis
dummy
nazis
##elein
##keeper
nigga
ignorant
alternative
mantan
remarkable
multip
diplom
kringelein
sebastian
dolores
bam
bio
bishop
cass
dur
eag
fu
ivy
jeep
jelly
lid
mouse
mount
pope
ral
rop
session
vom
vouch
##ii
##not
##nic
tools
whit
##eters
##aser
inna
heel
##leaf
##usions
outer
alas
manual
plants
##olve
lev
needle
scal
daylight
grief
##udge
crus
waits
pointing
##izer
coup
acts
flood
serving
##ivity
glen
breed
walker
excit
skills
frankenstein
##encer
ridd
imply
owen
tops
toto
fairly
hotels
sunny
davis
treves
illusion
crossing
detectives
##box
documents
wilder
praying
specim
obsession
fingerprints
wheeler
contracts
technically
hawai
primary
patterns
tanks
panties
holland
drowned
insulted
vaugh
##nolds
accomplish
bingo
sincere
fergus
mafia
reynolds
maranzano
cord
fid
hush
lin
lest
nit
rounds
tire
wounds
wipe
##iere
##kward
##ridge
##lan
##gate
##erie
##atics
##anes
##order
##orable
whale
##aron
##armed
##iser
heav
##cktor
shap
myers
##aman
##anta
canada
aspir
tram
##arte
goods
##rah
brun
brady
spons
spagh
twins
leland
lecktor
oklah
happier
swann
minnes
lazy
##acle
##anks
tomb
##ansky
parlor
schol
slam
##ughters
content
##mann
aha
previous
reads
capture
possessed
genetic
awkward
##encing
closely
answering
georg
element
beaten
bobo
raising
annette
psychology
squid
operating
operator
purch
bosses
chickens
juno
risks
197
193
silk
discussing
frederick
souls
heroes
survival
exposed
wheels
jammed
excellency
chaos
broadcast
chopped
cabinet
concentration
embassy
demonst
ribbon
##ulsive
utter
ultimate
retirement
struggle
pentagon
industry
mckenna
kristen
vivian
anonymous
beneath
enforcement
clyde
oklahoma
minnesota
dere
ike
lime
pod
tide
yon
##uate
##mont
##ís
##inations
theories
##aroo
##keys
streak
##icip
##amus
butcher
sod
outs
fraud
trag
##aste
bru
spotted
##umes
unem
marvin
margar
scum
oldest
swana
hockey
perm
perf
monica
stayin
##pret
nicely
resour
craft
boone
appet
commod
deserves
harass
##gger
sleepy
childhood
eastern
causing
passes
hunter
stepped
buys
snuff
fellows
region
artagn
##lined
dragged
raoul
explains
maxie
##ernon
blowing
costume
illness
practicing
knocking
returns
connections
##cript
cookie
heavens
suggesting
surviv
expand
autograph
civilian
identity
satisfaction
nicer
josephine
cowboys
thorwald
friedman
nuns
institute
faggot
stamps
kathryn
constantly
lecture
breasts
attached
syndrome
coordinates
electrical
nuthin
spaghetti
artagnan
28
75
bapt
eug
mol
od
pg
rit
sust
tina
vernon
wires
##corn
##kman
##ded
##pers
##anor
towards
##vember
reun
weep
measure
stores
november
##chant
chek
seein
drift
drivin
needing
queer
intense
scand
scram
##ewell
remar
remote
sworn
hollow
boyd
remembering
disgu
strings
prett
slide
slipp
brew
walkin
dealers
daughters
tense
farewell
metaph
countries
christine
sketch
sets
behalf
consult
colony
airpl
follows
starship
calvin
painted
curtain
favors
error
sells
psychotic
popcorn
published
formal
carla
temple
girlfriends
limo
suggested
williamson
hooked
mmmmm
levels
venkman
corrid
mortal
whaddya
knights
porters
hobby
stevens
debate
registered
experienced
niggers
narciss
intentions
captured
announce
branch
sunset
pudding
symptoms
excitement
unemploy
chekov
400
ara
bian
bunk
cater
dow
fans
hong
jord
lamp
niece
sout
sway
tack
tuck
vicious
waking
##aire
##coming
##elf
##uard
##uum
##gler
##tw
##pol
##bler
##xed
##utt
reggie
hamm
habits
shine
lilly
##icidal
##uster
canad
##urb
abd
allerg
asian
##osure
seed
selina
##ulty
gull
bri
backup
underest
poly
smash
##atched
adrian
actors
hiya
mora
##ocks
insight
proved
hardware
slice
watches
breach
fold
dealt
desmond
relations
darn
passenger
infant
##apping
##okes
messy
greedy
transmit
landed
keaton
owl
addison
fixing
servant
shortly
irre
hopes
demons
borg
199
fatal
ladder
islands
westley
puke
contacts
programs
photographer
approve
climbing
pockets
settlement
immediate
assistance
bonus
boost
requested
shhhh
arrangement
depressing
disappointment
therapist
sophie
predict
sandwiches
battery
batteries
achieve
bourne
disturbance
fiend
phillip
volunte
wealth
compromise
wiped
supre
orphan
expedition
horizon
warehouse
ransom
ralph
perfume
dal
ere
eager
ga
hence
ole
posed
rio
rudy
sis
sut
sane
ze
##mark
##face
##wy
thie
thread
##atically
##onna
##onia
toys
##edge
##etically
inh
ink
ingen
##utions
hald
shuff
##chair
sock
frigg
tracy
deed
ali
##ains
manuf
##gel
expense
mayfield
carn
amen
amber
pecul
overnight
unable
blaming
killin
cocon
fires
smack
smashed
guessing
stubb
##pected
boil
sloan
##iana
meets
daw
##ancing
cafe
explor
delicious
madison
arrow
curs
erica
visa
surprises
psychological
centuries
treas
trevor
roseb
tricked
romul
label
prayers
bandit
autop
##ography
faithful
authorities
sweater
feather
hamp
sources
austral
separated
savings
facing
vulnerable
album
various
seduce
cathy
dignity
priority
despite
graduated
lipstick
sacrific
flattered
morphine
breeze
delighted
altered
dodge
refriger
basketball
legitimate
chimera
##birds
anchor
shithead
voyage
pencil
channing
withdraw
unexpected
ritual
moraes
manufact
peculiar
bou
ding
ein
kor
linger
pend
ts
ties
tib
tender
vod
woo
##yer
##pot
##zed
toes
##oting
goss
##see
##ighty
nell
outrage
chips
##estra
##unning
orbit
placed
##endous
##abelle
spank
spying
offended
claws
enquir
##ria
unw
unst
quaid
hug
gren
helpless
mah
maurice
swan
minimum
theirs
##shine
bold
contra
##phis
readings
barrel
cuts
shovel
pointed
eduard
resting
excuses
breakdown
bites
indul
conflict
lightning
freeway
samples
memphis
haircut
classified
balloon
distinct
humanity
addition
respectable
smelled
peach
fortress
cigars
cecile
philip
cellar
suspects
examine
expose
smoked
pilots
frightening
##itzer
nails
released
planted
corresp
poisoned
punished
stewart
medication
encoun
puppy
latin
hoover
porch
regarding
rehab
beckett
lungs
insect
integrity
sentimental
nichol
caviar
kendall
pittsburgh
acknow
eugene
vodka
gossip
correspond
90
aaa
cough
dyl
fettes
gino
kitty
ling
nash
rita
##rors
##lim
##list
##lene
##pin
##eries
toxic
inquir
hector
hav
donny
stool
stable
##amas
soil
uptown
sax
manip
guild
guitar
willow
brig
spencer
clues
overr
quad
intact
scent
scoop
##elope
grows
roast
wax
kindness
proves
slick
accur
##ggage
capit
mete
eatin
darryl
copies
evac
fireman
bench
sniff
define
almighty
ridge
murderers
natalie
reform
imagined
teachers
penit
affirm
denied
pissing
##boat
tracking
luggage
fields
examined
innoc
smokes
organized
lamar
malf
massive
titan
printed
immort
communicate
crowded
bailey
toothp
cubans
chemistry
##check
psychiatric
briefcase
hollis
choir
automatic
abandon
chrissakes
instincts
exhausted
dynamite
constitution
eagle
hawaii
jordan
dylan
affirmative
300
bai
cows
dart
eld
echo
foss
fulf
hilly
iv
kel
py
pms
porter
pension
rice
rational
vague
wack
wag
##cie
##cott
##life
##uctor
##uations
##mith
##burn
##fish
##zil
##aney
##lling
whoo
stations
##icorn
##icates
nostr
##urre
chased
howdy
##elled
worn
##estic
alab
orson
maneu
##osaur
##abet
conver
carri
amusing
scrap
coin
gru
grounds
helms
cruc
smear
adorable
ministry
pervert
disag
parade
chef
finance
harvey
reliable
relieved
questioned
explore
##aza
importance
corps
depth
feller
admitted
touches
winston
winds
cured
studies
raid
merger
micheal
burnt
denver
neglig
rising
rolled
filling
electro
drawer
taransky
norville
dancer
scaring
lesb
switched
scottie
terminal
spiritual
diagn
buffy
powell
ronald
commitment
vault
thumbs
certified
infected
atlantic
rothstein
##onnect
inconven
brutal
stewardess
vomit
tragic
hampshire
tibet
hillyer
dash
ego
fare
ich
jas
jaw
keen
lined
mace
rend
rud
rash
tee
tenth
vow
vag
zack
##ngler
##cour
##rim
##oen
##uj
##bes
##ängler
##inent
##eness
##otics
##ito
inches
##uted
reilly
goat
##imes
stare
stair
stoned
liable
lions
##illes
##ctions
##step
trium
sull
alto
##ifies
##olves
ariz
spice
spite
twent
offers
lech
quitting
##agen
hull
putter
believing
crop
cramp
elim
kindly
flirt
##eks
##eyer
cheers
harris
stuffed
schools
##ibilities
relief
booked
evolution
towns
wished
confront
murphy
sylv
benny
diner
robber
petty
##hhhh
medal
superher
palmer
rocket
connie
divine
bravo
ringing
armor
194
belonged
##teenth
modest
cookies
macfar
argon
furtw
organic
crashed
danced
stanwy
discovery
immig
austrian
sneaking
buffal
##backs
kidnapping
activities
disgrace
pirates
lawsuit
chains
thorough
drowning
jacques
qualified
dizzy
replaced
whacked
dudes
patchett
thrilled
laboratory
virtue
methods
gibson
cheek
permanently
forbidden
rangers
elephant
arcade
wrapped
compassion
fantasies
southern
penitent
triumph
arizona
macfarlane
furtwängler
31
ced
dork
gates
ive
kra
oo
peep
sang
sank
tum
venture
wick
wich
##iors
##uu
##tight
##pack
##point
##bone
##zak
##oups
##atown
##onies
##orc
##orate
whew
##esome
##asis
heels
becker
whatso
##amins
##illing
nev
##stock
chi
chairs
##essions
worms
somewhat
alib
logan
##istics
##ulars
guid
brass
##akers
conk
amuse
ages
click
ens
overd
overwh
maria
coco
wrist
##uded
probe
phoned
household
roommate
johns
compreh
##ggin
caval
##ugos
deposition
income
##ippi
calcul
ernie
cleaner
proposal
testing
advis
annabelle
horny
buckaroo
freaked
nearest
losers
cannon
gently
triple
solar
irres
brazil
destroying
##ova
woody
vanished
ceiling
lux
contacted
sanct
investigate
elected
##etched
judgement
creed
intrig
farmers
broom
rented
frighten
buzzing
civilized
performed
oliver
roses
satisfy
employee
employees
rabbits
miracles
nicole
purely
naught
referring
dumper
rhy
corporation
bounce
clouds
resistance
candidate
adults
fortunate
eternity
defeat
rebecca
schmuck
writers
yankee
interrogation
sabotage
appetite
autopsy
alabama
whatsoever
overwhel
48
70
bate
bisc
bryn
codes
dre
diver
ec
gor
hound
hats
jar
jag
lod
lud
mookie
nay
pond
panc
rating
ranger
tel
yer
yield
##rus
##oons
##uv
##meyer
##vous
##bro
##fus
##woman
##oust
##anian
##llor
##ester
##oty
##eton
##etor
bean
welf
shan
shang
##ads
abortion
##oded
##inks
prote
##state
##stood
atomic
debr
manchester
loom
loaf
telly
exorc
ark
brib
letty
##ober
clip
enlight
enzo
une
blake
blaz
marion
maude
##angle
elena
swine
listed
advert
remembers
##cia
##onda
minded
fathers
parano
##rove
cleve
accent
readers
invention
standards
eddy
beds
columb
signor
dining
burden
riddle
artie
submit
companies
dicks
bucket
psychologist
addict
flynn
superst
##zzo
buster
lowell
travels
visitors
continent
sufficient
anticip
cockro
vacuum
therm
towler
wheelchair
preca
leslie
berke
freaks
galax
galvin
scotland
ruining
reference
celebration
mortgage
unlock
stabbed
accomp
mathem
fabric
junkie
dimension
stephanie
oooh
benefits
bertrand
chemicals
declare
tribe
burglary
greetings
wigand
patriot
bracelet
cindy
goofy
koessler
vaughan
scholar
reunion
thieves
haldeman
malfunction
buffalo
bateman
welfare
aa
baker
cin
cum
dot
dap
gast
gek
iren
mild
pam
pub
tiss
vader
##nick
##sters
##fight
##wa
##erd
##aration
##omed
beard
beware
haf
##lection
shack
shared
knives
sty
stim
##antine
##cel
abort
anyways
brok
ammo
unne
##ember
##emann
blessed
##issy
groups
emma
mustang
crunch
keepin
homeless
##acing
fla
flav
missus
phant
phoen
disres
stroll
interpret
##hne
harsh
harrington
presum
decides
decency
eighth
awesome
heartbeat
confusion
confusing
##rete
lighten
blacks
expectations
sickness
collins
messing
snakes
dragging
absence
ballet
medium
catches
keith
entry
population
controls
conductor
penelope
roads
paperwork
responsibilities
castor
limited
equipped
arguing
grounded
blocked
cameron
relationships
fingerna
towel
tearing
sara
feature
lauren
kaye
mentally
depression
terrorist
vari
associates
##ylum
pillow
whadda
##ooter
occasionally
journalist
recovered
oui
nuke
picard
assassination
crushed
lombardo
gregory
kentucky
##weight
electricity
traditional
struggling
misunderstood
dwight
hustle
wealthy
heights
permanent
tremendous
greek
vinci
##ouraged
anesthes
grunemann
gratitude
navig
corpse
amateur
survivors
airplane
corridor
bribe
supreme
dawson
rosebud
accurate
meteor
wichita
conklin
shangri
daphne
phoenix
disrespect
divers
fountain
hir
hend
lys
oth
pork
sou
tch
##rin
##rent
##oven
##dog
##gs
##piece
##mers
##mine
##mund
##jo
##anity
##ington
##oran
##ener
meals
##leine
##immer
donna
stens
##urning
allen
allison
asylum
shep
##opher
##essive
wells
welles
mankind
loans
##osh
sept
comed
##abouts
##obot
amend
ambr
ambit
##bels
overl
betsy
unple
unicorn
mueller
groom
heller
##active
##nings
leavin
##asses
flush
madeleine
strung
resume
##pective
payroll
barney
cape
caps
damnit
eyed
sleeps
hopefully
copper
eval
awright
shootin
disconnect
retreat
returning
messenger
painful
legally
subpo
filth
straightened
masters
martins
attacking
courtesy
195
preparing
mirrors
cooked
depending
hyd
approxim
existed
audrey
weekends
buttons
bearing
##ropol
queens
weathers
graduation
identified
described
employed
horsesh
talented
european
pumping
celebrity
encourage
entertaining
rarely
passionate
swinging
micr
literature
ignorance
picnic
conceal
andrews
kilos
administration
increase
cripple
##osaurs
orchestra
pigeons
controlled
hysterical
receipt
inspiration
##iciency
conclusion
treadstone
travis
penguin
scandal
canadian
gruber
rendez
stanwyk
gekko
unnecess
unpleasant
27
34
bin
bien
cate
cort
cuff
dell
dated
fink
fade
foster
gw
hart
hick
jade
mature
null
roo
rul
rene
##nia
##rest
##roth
##riel
##uk
##gin
##mes
##jud
##fr
##fol
thigh
##inter
theft
##atra
##atures
##arms
shag
##child
fries
trous
orient
##igo
ohh
##obile
spoon
drif
overhe
##thin
##issions
gras
emm
mau
monkeys
strand
serves
headaches
hardest
slay
slob
persons
finn
attic
prey
chrom
pawn
jeopard
delicate
depart
steering
##negan
watergate
dinosaurs
elements
##oking
burg
regan
millionaire
peters
pains
subtle
curt
redi
errand
drapes
destruct
loses
condem
sunshine
terrified
float
costello
trips
valiant
conviction
irrit
damone
##nesia
footage
birdie
##iki
circles
##master
rolls
limb
##archy
portra
sweating
lyin
motherfuckers
scrub
ethics
directors
banana
experts
domin
funds
desperately
stabil
approaching
insisted
perspective
avoiding
clayton
implant
december
counterfe
chinatown
affection
accomplished
channels
procedures
obliged
experiences
gabriel
porno
efforts
dyin
shells
atlanta
negroes
eternal
pipes
iraqis
alpha
punishment
suspicion
originally
strategy
klingon
corrupt
undressed
margaret
bianca
allergic
shuffle
naughty
32
42
41
ais
baked
dess
gulf
hast
kast
kob
lant
lend
lones
loos
mour
pul
pace
penth
rena
ul
veter
##rod
##uy
##pons
##fall
##fman
thus
thunder
##oto
indy
##utes
beeth
reel
haird
dol
shir
##alt
donut
##eem
soze
gotham
gotcha
choke
trop
righteous
seeking
##ilated
user
##isticated
##olet
backed
##obal
convert
drama
enth
betting
quince
moore
mollie
marx
hugh
##ureen
embe
throws
elij
uhura
assured
dischar
fax
##ques
residence
proven
schul
sling
slack
charl
ahm
##phin
accuse
compos
compare
childs
easter
christy
indo
##retion
##lands
movin
##avitz
burt
patron
concrete
arts
recording
experiments
profits
distant
##tenance
protest
massey
mouths
dresses
terrance
jefferson
growth
sandra
##ovan
upsetting
mainfr
wooden
ninth
cept
accountant
verd
castro
directed
continues
definite
physician
senses
obsc
construct
shares
##ographic
julian
theres
cracked
pageant
forehead
ambition
purposes
suspended
brandy
militia
reactor
chopper
executed
jonah
stinking
reckless
management
association
recommended
germany
dispatch
maiden
underwater
internet
demands
bounty
explosives
mattress
determine
crooked
licked
kilom
dwar
charts
debts
scenar
paso
slaughtered
tuttle
vicki
rusty
toddy
grocery
coroner
manifest
rehearsal
bizar
brenner
friggin
lingerie
encounter
altogether
guidance
berkeley
phantom
september
ambrose
subpoena
approximately
rendezvous
dessert
kastle
beethoven
enthus
elijah
bats
hiring
kry
moth
nations
pne
ratt
soo
voc
##ae
##card
##kers
##rr
##rine
##dor
##post
##ban
##wall
##itary
beers
##very
##icians
noir
nolan
##adays
butler
sox
justin
asia
frost
chum
choos
trump
veins
##ppie
nowadays
exter
conway
caring
amour
amnesia
enh
##rik
intimate
marine
huey
godfather
grid
grain
emer
empt
maureen
mines
understudy
flame
flaw
deadly
tomato
resurre
interior
insom
prostitute
schiz
watchin
sixties
situations
##etto
barren
drinkin
childish
edmund
counted
figger
promoted
supposedly
awa
gracious
explode
deaths
chancellor
conserv
lighter
install
discreet
incomp
dinosaur
snatch
articles
stupidity
recorded
magua
refuses
impat
imperson
owed
psychopath
##ervo
pressing
respected
##iggy
visitor
idiots
hookers
rains
searched
##ugged
shocking
urge
interviews
venge
mutant
represents
pumpkin
pearls
principle
disposal
uniforms
products
defendant
##aaaaaaaa
deceased
radiator
gabe
linked
motorcy
pursue
bourbon
narcotics
sheldon
lynette
dedicated
##regon
cuervo
northern
frequency
gloria
crippled
nanobot
adopted
snoopy
instrument
panthers
torpedo
dixie
specimen
einstein
lesbian
lechter
cleveland
tissue
hafta
broker
unnecessary
categ
trousers
lantern
mainframe
pneum
38
800
au
bot
fist
fuse
lump
lama
mt
nud
pulse
ramp
sissy
tah
vanc
vows
##nik
##ext
##lar
##like
##uated
##mart
##mel
##fire
##fuss
##ouver
##enza
anton
anderson
revers
##imo
lil
noises
nex
##inkle
frog
chow
upside
uptight
worf
herb
##ulpt
bras
brody
theme
caro
##aparte
makeup
peck
maroon
margie
scars
cozy
##issippi
groo
roach
roots
wald
imbe
joker
jockey
emil
crumb
croc
crummy
throne
swiss
partial
adren
realistic
perimeter
flop
mississippi
##shed
resort
##ivable
hardy
turner
global
accoun
invasion
compar
sounding
metropol
bookstore
breaker
setup
##otto
trusting
discretion
##ippin
##enses
retain
benn
saloon
calc
sample
proposing
hairs
transm
specialty
poster
operational
martial
paula
maxwell
quicker
carryin
sunlight
penal
courtroom
consideration
devices
deepest
##ikes
bottles
acres
maintenance
delivering
estimate
sensors
smokey
examination
sharing
mmmmmmm
exposure
sleaz
tales
january
subjects
opinions
virgins
symph
flea
cousins
bonaparte
claimed
cooperation
domestic
mobile
kirsty
shirts
guaranteed
dental
materials
optim
sophisticated
convincing
bartender
vehicles
anxiety
transportation
##worthy
infection
gathering
springs
alcoholic
unlikely
detonation
battles
rebels
october
adopt
haunted
guinea
jeremy
##rupting
bacon
arrogant
lestat
sponsor
derek
disguise
unstable
alibi
loomis
paranoia
overlook
lonesome
schulz
vancouver
26
55
aaron
bore
bah
cork
cbs
cunning
dorm
era
eject
fug
gem
maps
obe
rave
tapped
yak
zip
zuz
zavitz
##ih
##iary
##iator
##ns
##cake
##cony
##cuff
##hard
##rence
##rise
##oly
##uest
##grove
##west
theor
##oning
todd
whe
##edict
inex
begged
mead
haz
shining
stella
##icut
##ching
##chess
##illed
sober
##ctic
aster
chump
tract
traps
herbert
teller
##ifton
##raph
##olome
arse
whereas
brat
backyard
spats
spots
twelf
mayh
carson
clifton
enid
pepper
unpr
intu
bugging
marla
##thorn
sculpt
lovey
loth
laval
phase
pharm
disrupt
##redict
##shop
##iva
##ivan
insign
schuy
##onsider
glow
polar
finch
endless
restore
darrell
skipped
complications
graff
passeng
confuse
franky
factor
hunger
madness
##ippe
##erts
##apsed
subc
gladly
radical
contrad
freel
images
kisses
supernatural
basil
##aldi
honorable
fears
chiefs
duh
sherman
catal
sadd
spacecraft
connecticut
tracked
disappearing
disappearance
joining
puzzle
amazed
angelo
##works
shari
panicked
balcony
##roph
characters
keyser
supportive
magician
speeches
grades
rapid
wesley
expertise
pregnancy
femin
domino
traitor
typew
dishon
injury
hypoth
incidentally
cynical
african
saints
teenager
tossed
creepy
barnett
mummy
kathy
lizard
spooky
blessing
warriors
farther
restraint
occupied
volunteer
unpredict
sympathy
establishment
cloak
duties
discipline
isolated
persuade
complaints
molecular
dreadful
implying
georgia
volunteered
aliens
stubborn
cedar
fingernails
curtis
aisle
penthouse
zuzu
twelfth
schuyler
passengers
aqu
aah
bass
bates
barth
dary
erik
faking
fib
fert
lust
sip
ssh
sings
tires
zul
zomb
##kaya
##rust
##din
##dan
##yll
##tz
##pace
##mia
##lla
##orp
##isance
##isco
##itations
heir
revel
webb
meeks
doo
##user
##keep
lib
##urer
sole
worsh
plank
##rav
##olo
spine
twin
offend
cargo
drool
overse
bets
betcha
hass
marijuana
##thouse
scope
scooter
lovebirds
sorrow
rogers
remo
maze
cro
##anges
leap
kidney
courthouse
missile
handcuff
##ogen
fazel
interrupting
insulting
slapped
prejud
daisy
harvest
tension
barber
beavis
restless
caution
apes
speck
trusts
##iera
##ontane
infl
infer
colomb
starve
stepping
eleg
defending
admission
##umbled
louder
classy
greed
distrib
reporting
jerome
protective
supervis
earthqu
judging
claus
##bridge
spends
creating
tougher
relaxed
sherry
torch
torment
appreciation
mainland
teams
##ilians
circulation
campus
gerald
particles
cellular
difficulty
digest
digital
percentage
doris
sarge
massach
projects
hamilton
rosen
opportunities
employment
whisky
gambler
cycl
witches
representation
principles
scheduled
slaves
occasional
spreading
specifically
priests
semin
shaft
vincen
nuisance
comrades
candles
cruise
horns
##rogen
misunderstanding
restrain
omel
fortunately
tamper
wrestling
glorious
##borne
potatoes
swedish
fiancé
retrieval
acceler
landlord
alaska
utterly
resources
underestimate
refrigerator
boule
enquirer
contractor
nicholas
innocence
maneuver
irrespons
brynner
gaston
hairdress
bizarre
pneumonia
imbecile
##olomew
bartholomew
fazeli
ale
bain
epid
fetch
horm
hicks
ils
jets
mop
munch
ols
pine
rigg
ripping
satch
sessions
ugh
vood
zira
##name
##cre
##cal
##cula
##kall
##riter
##rari
##robe
##sky
##yy
##uge
##giving
##top
##break
##lled
##isk
##etics
##itan
##omer
##asm
hee
rely
meg
hail
shin
knots
lill
##sex
neural
allows
alleg
outpost
pritch
fron
traced
##opia
##ilation
sap
sakes
##gey
##iffe
##ista
##istan
##ulator
arnie
coman
brack
brock
spain
offensive
careless
drain
leia
download
quant
blair
scoo
##elius
##uding
smiles
smashing
minus
hock
perry
handles
housew
reserve
parry
slit
##igned
hurric
glimp
finer
attraction
accusing
accidents
sitter
endanger
mornings
eyel
edition
figuring
evolved
signals
delusion
delmar
corny
depri
starters
disco
discl
incap
geor
##oked
snitch
robbers
touchy
liking
curve
natives
ordering
extension
advised
companion
freaking
masks
merlin
vibe
maximum
michigan
musician
majority
packs
convicted
umb
braces
reaching
duct
duchess
motiv
maine
carlton
campbell
horseman
bowler
appeared
ants
sensible
observe
pinned
politician
moonlight
crashes
buttle
performing
marshall
identification
volume
languages
repeated
wilh
magnet
cornelius
cuban
funding
graveyard
##uzzy
kidnap
spells
cosgrove
recovery
pierre
shadows
challeng
critical
microw
currently
dieter
pursuit
etc
gregor
lynn
phillippe
bolt
duffy
whispering
tempted
bundy
##donald
instruments
thrusters
substant
nasa
inherit
acquaintance
colleague
colleagues
forgiveness
sicily
certificate
australia
disagree
jasper
sullivan
lyssa
comedian
portrait
shirley
composer
wheat
hazard
irresponsible
hairdresser
ilsa
pritchett
hurricane
glimpse
91
aub
auth
auction
bers
cod
dmit
fet
gt
gau
hed
kau
kitten
lle
lugos
nig
pint
vet
vest
vital
wo
wud
wakes
##nels
##hy
##eger
##rack
##rina
##dling
##sis
##water
##wyn
tol
toky
##inging
##itals
repress
##lein
##levant
##usins
forcing
donovan
stitch
stashed
##verick
##secker
##icit
##cht
##chief
##entially
candle
##allows
ally
wholes
alg
saus
##ucks
pla
plaza
arson
##icker
##ours
conrad
dried
aged
clam
overs
unload
quinc
##emm
##emois
mold
blamed
blunt
killaine
scru
##elway
happenin
wretched
grusins
longest
maverick
leagues
flipped
misses
##intend
phoney
disney
##eeney
morris
boards
accus
payin
paycheck
compartment
deser
farms
babys
##ibles
evident
bullsh
policemen
hearted
graph
beha
indicate
consent
hunh
hunsecker
cora
sidewalk
mademois
##erton
burgel
shipment
conclus
artific
erase
dracula
rae
midget
dickhead
lando
landon
pauline
publishing
publisher
##heim
valid
solo
democ
peaches
closes
rises
risking
risky
sandro
communists
welsh
hmmmm
##iggins
carlotta
traveled
geek
verbal
threats
estim
definition
pushy
loading
holiness
creation
beaches
juan
approved
approval
organize
organism
professionals
authorized
issued
##lights
bells
combined
tourists
arriving
ripe
mysteries
positively
broadway
disturbing
magnetic
corners
tuna
albania
activate
whaddaya
wendell
1000
wardrobe
mackelway
qualities
application
teenagers
kiddo
oscar
containment
katrina
experiencing
humiliated
rexroth
bumped
commercials
industrial
salvage
pooch
fletcher
alphabet
parasites
pigeon
synth
mimi
sofa
interference
inspired
electronic
muffin
prettier
dowd
irrelevant
cursed
anesthesi
amendment
krypton
impatient
bennett
elegant
boulevard
voodoo
dmitri
lugosi
tokyo
quincy
grusinskaya
mademoiselle
conclusions
44
ak
bim
banged
bij
cz
coy
drey
fen
gown
gide
iced
kre
kore
miz
mord
motto
nsa
oly
oven
ounce
peak
piggy
tucker
vine
wl
##iya
##ril
##rum
##rants
##ruder
##och
##wely
##zi
##zon
##inction
##anium
##oral
whim
##arine
##etz
##uties
rekall
goeb
shab
shipping
shorter
##ala
##imal
donít
stag
##icon
##icity
##ooke
##ooper
abst
alle
##eable
chunk
trim
trif
sump
anythin
deploy
##inder
##ively
org
mansion
##rag
como
##endel
brenda
spear
spies
spontane
offs
amanda
##apo
claw
enchant
bluest
marines
marlon
marcia
scored
##elm
gro
joh
##pless
##placed
crock
##assing
elo
swat
lotte
acme
startin
secured
##inton
runner
elsewhere
sera
##shaw
crabs
contempt
context
polo
finishing
prev
foundation
##etts
prescription
casey
relay
promising
caf
fightin
obtain
bully
graves
gravy
behold
humble
shoots
hunters
blooded
firemen
starks
discount
##ensity
colleen
eleanor
alma
burial
grandchild
regiment
regulations
curly
memo
native
loun
grease
annual
explaining
squir
felson
posters
nickname
marker
sunk
pressed
##brush
##cedes
devoted
irs
##boro
reaches
turf
suckers
mainly
tricky
greenleaf
cecil
required
colorful
macle
idiotic
suffoc
loads
collecting
sheriffs
talby
concerning
sarc
receiving
embarrassment
precinct
ashes
ambush
hatred
olive
provided
anglo
requests
execution
cornwall
appointed
jonathan
included
albanian
150
ferrari
fascinated
experimental
explosive
250
pouring
micro
chewie
surgical
katharine
initials
conducted
misunderstand
gestapo
hustler
mechanical
declared
sympathetic
astron
bushes
imperial
##lowe
dillon
vegetable
dutch
tolerate
joanne
bundle
measures
helmet
suspicions
skept
trauma
fragile
sssh
masturb
yonder
narcissus
swayzak
immortal
superhero
advisor
galaxy
scholarship
ambitious
dwarf
accounting
freelance
typewriter
olsen
wilhelm
microwave
kaufman
llewely
bijou
olymp
goebbels
cornwallis
llewelyn
36
bont
cue
cush
dances
ecc
fest
fier
gina
gained
kron
kinky
loop
mice
nup
pim
pest
pens
rally
riv
sque
siber
tid
tig
votes
##ais
##cet
##rich
##rane
##uating
##bott
##bok
##erous
##inery
##orous
whitt
whiz
whatt
##idt
stakes
stead
##icial
##ammit
##illery
outstanding
pry
prague
fridge
fraid
chalk
chili
herman
loath
##ifty
gump
##oli
arlyn
##endar
clut
##bec
##river
blades
##ffy
grendel
waving
remorse
##anging
adolf
perver
lax
assed
assess
assets
##fton
suppl
phyll
mindless
headlines
resem
intercept
proving
##arez
reconsider
thanksgiving
glam
invitations
mets
preserve
darned
capp
cairo
caffe
millie
millenn
skating
skye
compliments
goddess
##azza
cola
significant
huntin
corb
##ensed
retail
##ucing
salvy
caliber
artists
beatin
musk
muscles
rafe
absor
transit
transpor
rufus
completed
surprising
freight
squat
squaw
added
accidentally
##bted
purity
honesty
floors
smartest
valet
values
bastaldi
eyeball
strongly
demol
brakes
denying
dupl
ringo
layin
located
saddle
roller
healed
gerry
travelling
tasty
verse
verge
witnessed
cowgir
heroic
apologies
suggestions
furious
obser
yelled
hyper
reminded
portland
screamed
janitor
precogs
massage
feast
lucas
flee
videot
angie
shrimp
pumps
references
battlefield
representing
vallens
inspection
trading
cosmo
ferrie
partnership
holler
journalism
attempted
despair
##burgers
holidays
wrecked
troubled
membership
ummm
convenience
ultim
replacement
delightful
philosophical
revolutionary
bulj
resignation
##ecou
consciousness
gruner
tactical
vigo
rejected
intellectual
exhibit
nasal
reinforce
acquainted
annoying
signing
ankle
observation
plumbing
democrats
meltdown
bronx
skiing
pennies
multiple
levi
heavily
demonstration
romulan
grenade
##course
flaemm
kilometers
sooze
conservative
nexus
symphony
insignificant
subconscious
unpredictable
massachus
lillian
georgie
nigel
gideon
bluestar
bontecou
phyllis
47
bic
bind
bos
cd
dine
dwell
eater
fern
fuzzy
gle
gil
hana
hoop
kinc
ketch
lag
pus
races
ratched
samp
tink
vain
viz
zoe
##auc
##nob
##eur
##rig
##rett
##rations
##rator
##rative
##dr
##did
##sie
##ski
##lets
##letic
##gus
##tes
##tub
##bby
toon
##enmeyer
whites
anat
anarchy
##edith
##otine
##asions
##utz
hauser
shade
stere
stad
notions
##sell
##ico
##chm
##enton
nels
sollo
allies
prices
tray
trinity
##oper
##oped
sul
##estyle
##unting
everett
mans
##uckle
##ifully
timer
sefton
##olph
whereabouts
backing
backward
spitz
convey
##umble
carries
enlist
happiest
overre
hash
mariet
##thm
scound
scores
undert
grub
remot
##tage
##adek
lasted
smy
hoax
flunk
throughout
slug
appleton
funn
clement
attending
teasing
reader
harper
surfer
paw
pickup
beau
reliant
hotter
caen
caut
apiece
bedtime
grabs
humper
indicates
consist
shooter
steed
##neck
##neider
expects
benedict
freely
sexually
salon
ridin
rides
hanged
dearest
musket
raft
propag
absent
richest
distraction
medio
protocol
prototy
imagining
merch
mercedes
meredith
jerks
fixin
##ergast
##coat
sunrise
terrifying
servants
misd
shorty
commands
footstep
shermin
torrance
bombing
##aaa
cardiac
boarding
cease
healing
homicidal
fredo
luis
gardner
princeton
prayed
quarantine
blocking
recognition
mcg
potter
civilians
towels
climbed
italians
crawled
generation
wessex
terminate
luca
rosa
claiming
lindenmeyer
gardener
revol
cycle
mccord
gallery
hawkins
domini
taller
tunnels
lapd
terrorism
bernard
negotiating
shifts
compete
hypnot
banging
##offs
commerce
despise
hayes
shaving
reservations
paintings
philosopher
applied
nursery
prosper
flattering
humiliating
iii
##lihood
mechanic
mechanism
cheeks
flowing
refresh
athos
athletic
scenes
tammy
burglar
muddy
hutton
insec
gillis
memorial
nyah
##writing
maniacs
outlaw
retarded
initiative
tatum
praetor
involvement
democratic
rmph
cosmic
clemenza
ropes
scalp
crusher
pendergast
outrageous
distinctly
havana
capitol
twentieth
nevada
ratings
columbia
otho
horseshit
##folk
counterfeit
carolyn
adrenaline
##hardt
supervisor
rigged
incapable
berserk
wladek
caffeine
millennium
buljanoff
kincaid
sampson
sollozzo
marietta
footsteps
29
65
berg
bik
dors
higgins
jin
jude
lent
lund
lena
nite
nba
oregon
pans
render
tipped
vot
vile
wan
wilt
wiring
##iate
##cat
##cest
##hound
##occ
##lay
##lic
##lson
##lift
##pool
##psy
##mind
##bry
##front
##word
##weed
##zs
##eria
##initely
##atin
##onic
##anas
##inge
##ingu
##itage
##ometer
##asers
inapp
heine
heath
heming
rebel
wease
whatiya
havent
##leen
##iders
golly
shades
stif
notion
##icia
##ithium
##illion
cans
areas
pron
##storm
fract
chad
troop
tresp
velv
lookit
##osse
##ulating
exotic
arlo
spinal
conor
##ousing
leff
enri
##bean
moreover
ungr
blend
intel
mule
scattered
cox
wrists
thoughtful
##uddy
crude
giron
##izations
sweeney
adore
uhm
monstr
flare
##quil
stray
interpol
intercourse
insert
insanity
camel
boast
slash
slipping
warner
gland
globe
tease
text
compulsive
harlin
harrison
differences
barker
##ashi
meter
metro
pickin
picket
prescott
relieve
darlene
prominent
password
info
doorway
airlock
dela
hungar
##ensen
geoff
##ushi
snot
snort
admired
admitting
calendar
grandson
husbands
windsh
perfection
raven
extent
transpl
visited
rupt
nearby
##rams
positions
pasta
teaches
repairs
publish
##zzling
##zzzz
respects
misplaced
treason
devast
##maid
hopkins
demille
siddown
bathtub
boatwright
layer
radioactive
duncan
lowest
catwoman
hallway
halloran
vanity
locals
models
marriages
arguments
credibility
##bbing
taping
taped
panel
coop
melvin
butts
cups
technique
##ophone
archer
archie
videos
severed
interviewed
tourist
employer
britain
ethel
villain
cyber
congratulate
chops
punched
nicolet
referred
amongst
cartoon
##chev
butterfly
persist
roderick
universal
joyce
chewing
affected
lacking
assassin
ironic
swallowed
becky
sewer
instantly
bolsh
spectac
hitchh
jaeger
barracks
satellites
analyst
anesthetic
dialogue
favourite
platform
recruiting
geneva
lonnegan
economy
substance
tortured
fiancee
assembly
ankles
axe
bubble
miniature
ownership
liddy
wilderness
unemployed
sacrificed
acknowledge
inquiry
wacko
eliminate
immigration
cavalry
exorcism
blacksmith
stensland
grasp
chromium
loosen
mourning
scenario
incompet
vengeance
comparison
penalty
ravell
intuition
lothar
czar
lounge
macleod
whattaya
stereo
smythe
inappropriate
weasel
velvet
lefferts
enrique
ungrateful
bix
bial
cine
cel
dab
fitted
gigg
hin
jumbo
ker
mos
nipp
rus
rim
rattle
ti
vatic
vista
wart
witty
wisc
yod
yog
##aac
##names
##cup
##hl
##good
##pit
##mun
##bat
##bra
##bble
##bility
##jan
##jamas
##fare
##zie
thorn
youve
##ata
##atisf
##aning
whipped
whips
##ede
##isin
##etry
##itter
##omin
inev
thatcher
beverage
reph
hacker
dob
##idote
onions
isaac
forens
ster
sten
stut
stern
stored
##chez
##amis
canary
##allel
abbe
chained
upd
atom
##ieval
vel
defect
##unity
alger
sayer
##ifact
plaint
seasons
##olete
arist
##astly
##aborate
brooke
lett
##ouri
spic
spac
spaced
##umann
mayf
mayfl
ammun
lease
needles
workshop
peasant
overtime
overboard
unb
##emic
blink
gondor
bubb
marv
marrow
scouts
hugo
grind
grange
helena
finder
newcom
believer
##uda
poke
poach
poking
keeper
lasts
elaborate
mint
mining
hog
realizes
perse
fled
flown
missouri
handing
handic
handful
phen
deadbeat
disbar
hike
##quer
##quire
strick
reset
resident
crabt
##orrh
##orman
##angeli
##ignment
babbling
##onsin
##roid
financing
payments
inviting
terri
barf
barrier
senor
easiest
dolls
untr
restored
secondary
honour
fighters
##aha
indict
indef
##onto
aircraft
delusions
hunted
deputies
starck
lieb
geese
snuck
snip
robbing
secretly
artoo
peterson
subt
raving
presidential
extortion
profound
glades
distingu
radius
bankrupt
ruins
kissinger
pleases
blowin
michelle
shorts
casper
smelling
solitary
mentioning
damon
feared
appreh
duval
screwy
armored
192
woodly
violated
temp
disappears
verona
limp
correction
esther
sanchez
equals
masterpiece
addressed
antidote
cocks
pinch
mcint
theresa
norbert
towers
cracker
meaningless
conditioning
roughly
##paper
detailed
stockings
gordo
statues
arrives
relevant
mailbox
broads
bayon
developing
adams
accessory
180
butterf
activated
variety
strangest
snapped
associated
tanker
lifestyle
dumber
falcon
competitive
hypocr
regrets
hobbs
semi
cadet
warden
regardless
cheerle
cheerful
automatically
hudsucker
gaining
pistols
vitamin
minority
producing
humiliate
humiliation
pounding
chuckie
mamma
savage
suzette
salvation
cocktails
sparrow
premature
stalling
shouting
pupils
confidentiality
stalker
parasite
elephants
exhibition
turkish
receipts
republican
torpedoes
conquer
bubber
historical
purchase
sustain
coconuts
quadrant
titanic
pyram
luxury
cockroaches
accompany
microsc
condemned
shuffleboard
emerald
obey
##dinck
shinzon
umbrell
alleged
fierce
kronos
viznick
stadium
remotely
humperdinck
bialy
vatican
wisconsin
rephrase
plaintiff
ammunition
gondorff
disbarred
crabtree
cot
cors
dand
gust
hare
kur
kitt
lain
lass
nad
pall
pate
pab
riz
rated
ruled
sought
vald
vander
yank
##aul
##core
##eenth
##kh
##rid
##rill
##oided
##lain
##you
##upp
##try
##maker
##vere
##bons
##bury
##buster
##zini
thugs
youd
##eres
thesis
##owa
##omen
heap
beep
ree
meyer
haired
##leg
##idency
libb
##verty
##icism
nov
##adena
myra
##anton
##anted
nellie
##tered
alla
outdo
aspect
frau
trapp
anyplace
##eston
lookout
oral
##igod
plaster
plumber
##osity
arb
aramis
willet
bred
brien
neverth
leash
peking
quaint
blur
##agan
wont
wonders
marc
coha
newly
jock
plead
criss
##iche
poverty
switzer
monk
monument
flames
phasers
wouldnt
hearst
disreg
disorder
##shell
param
parach
schumann
##ormal
harding
boz
warped
appe
apprent
babes
glove
teas
tequ
dair
desires
bark
barbec
wonderin
pointless
openly
standin
beautifully
skunk
##ceptive
obed
numb
indig
infr
dreamer
sybok
reasonably
bloodshed
madonna
inclined
##ippers
##avius
##upin
##ologists
##sylv
grandpar
regula
regrett
artistic
artifact
sweeter
substitute
magruder
erased
clearing
refuge
richie
classroom
testifying
##ructor
medieval
cooler
banking
specialist
freud
informant
tyr
topic
posse
hospitals
paste
hospitality
##ounced
coverage
drugstore
courts
macho
involves
connor
footprints
taupin
motives
pisses
elle
splitting
homo
shops
allowing
tasted
dumbest
avoided
particip
posted
programming
kara
obsessive
crem
pinta
##burst
ruben
smokin
notebook
cheaper
mixer
agrees
climax
massac
masseria
conversations
##ega
deserted
ignored
sights
randall
identical
gangster
requesting
kross
rambo
ethical
repeating
banner
virginity
austria
gallant
skywire
nicotine
fundament
chaper
otto
targets
representative
facilities
restaurants
woodsboro
negotiation
fascist
wolfi
renew
stephens
##club
hobbes
pitcher
rags
dewitt
vietnames
clowns
championship
punks
reconst
##walker
pitiful
established
athlet
norton
pipeline
pasadena
sparazza
2000
barrett
baldwin
pooh
tranquil
environmental
leaning
mandrake
economic
##oppy
prospects
strateg
parrish
certificates
chronic
pennsylv
riddick
commodus
remarried
curtains
unemployment
sutphin
explorer
korea
nashville
saxophone
override
carriage
sylvia
calculated
sanctuary
intriguing
lodge
protein
gwen
renault
resurrection
insomnia
barrenger
edmunds
groovy
crocod
corky
vincennes
bracken
eyelash
911
authent
eccent
corbett
massachusetts
##occup
hemingway
windshield
inevitable
mayfair
rizzo
libbets
nevertheless
cohaagen
switzerland
grandparents
vietnamese
pennsylvania
4th
69
85
97
aer
dak
flem
gild
ií
muss
moses
moust
ober
oeu
pause
rors
rival
tying
tsch
xxx
zen
##aves
##nard
##nuts
##cap
##rings
##dn
##sp
##lov
##liest
##yers
##uild
##uett
##gor
##tles
##py
##pay
##pone
##most
##bre
##brew
##bru
##will
##worm
##wash
##10
##inn
##inished
##atu
##atical
##oni
toll
torah
##orld
ancest
##owitz
##aro
##etical
hebrew
bem
begg
rept
##erella
haunting
dose
docks
shee
fores
formed
knot
stun
notices
##sexual
knowin
##icable
nooo
noooo
##chach
abbott
chig
chast
chel
##ando
deuce
decker
seeks
##ilate
##ilian
oranges
sag
saves
plut
plato
timmy
##racy
seas
couldnt
arctic
##venir
willya
##astas
backpack
spike
sperm
carrier
clair
cluett
peer
overload
unarmed
quint
##empting
moist
blo
bled
intest
bugger
##thr
coats
##issa
belg
gramp
grove
rooney
putt
emph
mustard
##angs
elbow
swip
couer
shitless
minimal
greatness
perception
missy
##athon
supposing
disk
disarm
##quette
strat
##eya
reserved
moms
##mmm
yale
slower
slots
recoll
functions
breeding
foc
foll
planets
attempting
menace
stuffy
holdin
barrels
untouch
rests
thirst
promote
lawrence
##aires
billions
apoll
simulation
grav
earrings
indicted
confined
truths
stares
discouraged
##ippy
forged
##uces
salute
calf
patsy
##jectory
winch
straps
artillery
painter
reduced
ergo
##ifications
refund
reflex
statements
transform
horace
mistress
destination
foolin
banker
masc
squirt
squeez
wallpaper
doucet
superv
musicians
treats
considerate
caswell
creates
jumps
michaels
drunken
slowing
crosses
duane
layton
appreciated
dangerously
occasions
bleach
bleek
camper
buncha
preposter
presented
postcard
suggests
continuing
suffers
gasket
cocky
quarrel
vacant
gifted
ghetto
expelled
clarify
guardian
fingered
mexicans
panes
admirer
cooch
portion
lynd
warmer
marshm
bondage
lindsey
swords
degener
mailed
immune
banished
remaining
indiana
114
quoting
thursdays
encl
malloy
trajectory
elevated
improved
rheya
briefly
cathed
rennie
##entials
corporal
educated
reservoir
contained
vito
mumford
kimber
cruiser
whistler
##ebra
watson
shotguns
pentangeli
oakland
sinking
##xxx
tribune
attach
delayed
vickie
appealing
007
intimidate
recruited
isolation
revealed
grammy
controlling
unreal
sleeper
cinderella
kalen
jeremia
smuggling
accepting
altitude
contribution
chronicle
fiddle
harassment
scrambled
remarks
slippers
slippery
coconut
spanky
sniffing
fossils
wagner
nostril
drex
##fighter
souvenir
metropolis
fugitive
tractor
zulu
tampering
quantum
fetish
gauge
overreact
clementine
cautious
prototype
stifler
bolshev
lettuce
umbrella
bialystock
dairy
dakota
oeuv
rorschach
xxxxxx
recollect
apollo
jeremiah
63
600
78
87
bak
bib
bode
dice
dile
fanc
flex
fij
hating
hilar
lonel
mph
mates
ness
nune
ola
pes
pion
pame
pact
pins
poop
siz
tart
tipping
tijuana
wu
wits
wigg
xen
zion
##iation
##cend
##hal
##kon
##rous
##lace
##ucc
##vas
##vale
##fty
##wer
##wide
##17
##oux
##oubted
##erman
##atore
##onium
toad
##llll
whoop
wheres
##esus
anten
##eder
##iti
##ask
reib
##lee
##idian
##gher
isab
shes
shush
shitting
stoo
lia
noses
##ented
canned
##ooping
##lyss
theyre
##stream
chilton
shelf
##opic
suicidal
vein
worley
dement
orgas
##igning
manz
lov
segr
guer
##olent
##oline
##abilities
brid
##obie
twink
amigo
drugged
##orted
peop
unnatural
moi
moe
bugged
scobie
coz
coca
##issom
undo
undoubted
daytime
lovejoy
grim
grissom
sordid
newt
##udges
poets
leaf
elbows
swap
swift
hoot
lottery
isnt
doesnt
actin
flam
handwriting
suppress
deadline
faerie
hipp
mothersh
morals
insides
##orro
slime
slugs
mattered
glue
dealin
preoccup
tennes
paley
barzini
bringin
##ibble
edna
forgets
christie
worryin
mille
##otte
obl
##nov
##ierra
infilt
dreamt
console
##ussion
jez
airlines
hunk
lighthouse
blackjack
stargher
steer
deter
freezer
dino
snack
fulla
ridden
patty
patio
regards
registration
sweetest
windham
##umbling
orderly
raises
midge
richards
testified
greer
advent
transvest
shallow
adds
popped
merit
##ounce
flyer
condesc
superstit
supermark
##oula
shortage
invested
davidson
divide
ticking
junction
slowed
neglect
turb
bustin
##boards
armitage
sadly
preparation
verify
##cuted
directing
equality
surviving
necklace
obsolete
mcgr
juven
juarez
collected
politicians
dumping
meaningful
males
portal
reprod
climber
devils
harmony
weaker
supporting
belle
freaky
motherfucking
generator
ashley
suspend
freshman
gangs
arrival
bananas
goddamit
diseases
cyl
##icycle
mobil
celebrating
telephoned
blanks
vulgar
lednov
##nnn
improv
dusty
injust
ferry
betrayal
slavery
renard
puppies
priorities
sophia
canceled
ducks
acquired
boundaries
caddy
teenage
nursing
literary
oblige
ignoring
links
##ulses
racing
racist
richer
virtually
temporarily
gutter
alternate
unpre
independence
poems
deemed
administ
administer
scrape
defeated
subscription
increased
iraqi
bodyguards
temptation
##arnation
350
compensation
sequence
inherited
exaggerating
mercury
frustrated
lengths
hemorrh
obstet
corruption
lazar
leadership
simpler
landlady
shreds
slimy
diplomat
roper
brunette
demonstrate
permitted
treasury
additional
lingk
elders
fossil
inconvenient
inconvenience
thoroughly
krauts
biscuits
telesc
debris
enlighten
superstition
mathematics
irena
hirsch
drifting
overheard
stabilize
kobay
veteran
discharge
enthusi
category
overseas
scooby
deprived
aubrey
anesthesiology
tigers
indefinitely
lainey
disregard
tequila
eccentric
cathedral
drexl
dilemm
fiji
hilarious
nunez
pamela
reiben
isabella
segretti
undoubtedly
mothershead
tennessee
superstitious
33
64
72
az
bm
biff
bitten
cet
dott
diving
fences
gul
hink
hath
hides
iowa
ka
kee
kla
kaf
lace
latch
lull
muck
norr
nude
oona
pies
tes
tus
tac
ud
vend
vous
vase
vene
wool
wager
zammit
##cur
##horn
##holes
##ech
##eers
##rime
##ratic
##ointing
##lad
##uar
##tieth
##pass
##bc
##jay
##wl
##wanda
##zas
##32
thail
##inos
##inum
##inite
##inarily
whining
ansel
anastas
##owing
##aria
##isl
##isons
##eta
##eted
##itel
##omon
##omber
##asa
hep
reich
reinc
meyers
whatnot
##leigh
ons
sham
##ali
stack
stash
stump
static
liza
notified
noisy
nods
##chen
##amous
##amoto
##anth
nelson
prank
chand
chaz
chau
tril
triv
##opy
deanna
alarms
ort
orb
##igs
lovin
looting
##geois
goodman
##ifiable
##raved
##rault
seiz
exh
exquis
##olia
arra
aroun
artery
willard
##ounding
brink
lethal
##ickers
##obey
##umper
##ittance
tweak
mayonna
carrie
amity
nevermind
##apse
clap
clitor
leons
callow
##few
pegged
overt
overcome
moh
##idel
marse
scales
coal
coch
grie
rogue
wah
waal
imitate
emin
maids
cran
crates
crops
leaks
elias
olds
couples
courier
courses
##ptic
partly
hoag
laughter
monro
assurance
flick
handbag
##ogast
##orda
mighta
disse
dispens
disobey
##quin
##quent
##quate
##iffer
##ateral
##proof
morlock
interv
crab
insists
boating
slur
cheval
contem
charms
warfare
fungus
sonora
##onson
glance
glitch
##phem
attended
accomm
preced
prelim
payday
invade
tens
endure
pappy
cuttin
##iba
##ibal
presidents
##peed
monthly
highland
shuts
copied
cavity
honors
awww
grape
biting
youngest
induce
confessed
colson
milton
##cco
firefly
starved
detach
inciner
##erto
collapse
##ucci
esp
millionaires
strap
strapped
curfew
hangs
reduce
livingston
##ificance
extinct
classical
gladiator
impea
uncut
catcher
keitel
fastest
felony
merchant
operative
dresser
coffins
##oca
##ocated
accidental
stepmother
judas
considerable
##gann
eyeballs
illust
illum
illusions
garland
##govern
solved
solomon
irony
jumpy
doubted
denial
turtle
relaxing
sandman
healy
striking
allowance
connects
lotsa
casting
##cribe
macaul
investigations
equally
hideous
failing
louisiana
hooks
sensational
necks
credentials
observed
missionary
##fucka
raining
mcgann
kenn
rivers
feeds
guarded
views
langley
precrime
virgil
bodhi
##guard
simpson
martyr
lasher
paths
##ophren
uranium
rosaline
##ilsen
shrub
introduction
ramelle
drivers
immense
banned
moods
assignments
sinatra
##eteria
toothbrush
jonas
encoura
stability
screening
albany
approached
tails
imprison
competent
hypn
##ennial
embrace
sophom
ooooo
demanding
avenge
currency
osgood
rackets
barnhardt
launched
obligation
##ulsion
candid
spooked
lobster
bourgeois
racial
crucial
pedro
drums
crooks
fiance
rotting
lynch
unpack
mantini
spilled
biological
functioning
scenery
tribun
barrack
hatchet
exceptional
detonate
dillinger
compromised
pupil
tactics
yuppie
wandered
neurotic
waddaya
butchered
possessive
weighs
molecules
mushroom
klute
inspire
khrus
tattooed
selena
conquest
jellyfish
tramell
tackle
hammond
acknowled
corpses
rhyme
blaze
precaution
precautions
##ukk
hughes
trumpet
schizophren
motorcycle
tahoe
optimistic
meadow
zombie
hassle
omelette
substantial
repressed
artificial
dreyfuss
cafeteria
suffocating
cowgirls
ketchup
anatomy
propaganda
merchand
spectacular
butterflies
arbogast
moustache
ancestors
bembry
focused
preposterous
kimberly
manzetti
injustice
dilemma
kafka
zammito
thailand
anastasia
reincarnation
mayonnaise
clitoris
monroe
accommod
macaulay
khruschev
54
alyss
bord
bicycle
cain
cages
dag
damp
dys
gals
ib
ki
katherine
lure
lark
lounds
lining
lanes
mend
moose
nim
nour
nause
ost
oun
pi
ply
ponies
rut
rapp
rye
sigh
sushi
tad
tess
tep
uk
vas
vind
vap
wages
yarn
zu
##nea
##nity
##hen
##houses
##rical
##sen
##sons
##sberg
##lier
##gence
##gio
##tic
##pey
##vie
##bath
##bank
##food
##wan
##wind
##weg
##zens
thx
##inin
##inople
##innat
##onent
##onzo
##anne
tox
ana
itch
##isch
##itas
##asive
##asma
bees
weary
hacks
doomed
dozens
##ghy
shook
shiny
shaman
knack
stove
stumbled
noted
nobility
##adio
##irth
##amination
outr
asta
##steen
fret
frames
choc
chlo
upright
##opus
alf
alot
alam
whyn
manic
manson
managing
manpower
plun
plag
plasma
seamus
hiss
brom
brett
##icking
backst
##obar
##earing
spa
carmen
agitated
needy
##rielle
peed
unrel
quart
##eme
bliss
blues
muh
mund
##agl
##agious
mare
marco
marcie
scuff
scroll
scorp
coil
##issance
undead
wrench
##ishment
##ipher
grill
grif
grift
grudge
nightclub
rocco
empress
mustache
crm
cram
elite
swallows
cougar
smiled
minors
mineral
laf
homecoming
asset
flour
floyd
##ilda
understandable
startled
playboy
playwright
##atha
runaway
hijack
morbid
doneghy
proxim
bogey
slot
sluts
recorder
contagious
warhead
livelihood
##phins
inval
endorse
farce
pajamas
barks
barbie
cutest
presently
presidency
editors
countess
reluct
christs
bookie
arena
gunshot
shutting
cau
skim
skins
questionna
##uality
passive
exploring
infat
infirm
infinite
jeans
delta
corvis
fireworks
madmart
stark
##ioces
buyer
retards
freez
waterfront
powered
admittance
singular
petals
wearin
redneck
erotic
ladyship
cleaners
majors
extract
refill
reflection
greene
impot
impulses
transf
transition
annih
visits
seller
bitching
cooling
buckley
typing
psyched
##rament
privately
repay
counse
##coon
terrain
##zzie
costumes
##heast
baggage
involving
casan
largest
strangely
iranoff
divided
##overs
birdson
cashed
duel
screws
silicon
woodward
vanilla
circuits
carlo
camps
sadie
oppress
belonging
ellsberg
alexand
##keye
acceptable
churchill
cowards
limbs
apologizing
postpone
investigators
argent
##anners
karla
dependable
angela
digit
correctly
gasoline
opium
datab
examining
bands
pinot
pinched
mcp
ghastly
juicy
expend
exposition
rubb
rubbing
dumps
cracking
melted
malt
janine
climate
jenkins
##guer
chickenshit
bella
berth
objections
ashore
switching
archd
scottish
sporting
urban
hamlet
rosato
##crack
jealousy
ratan
101
engineered
banquet
borrowing
villa
development
cooperating
skywalker
witchcraft
magnum
chapel
ott
bulletin
unlucky
cartman
rushed
napkins
unfinished
concentrating
strangled
negotiations
mathilda
lifting
denton
injuries
cultural
efficient
efficiency
jessie
tabl
reno
foreigners
implications
paden
bounced
##mmmmmmmm
shelby
deceive
novels
losses
pitching
ragged
applic
aiming
tubes
vitamins
versus
gabrielle
constantinople
applejack
sacrament
##block
gathered
reconc
hacking
gibarian
marching
responding
hauling
restricted
occupation
adjustment
rebutt
fortunes
sewing
ruthless
mckin
northeast
territories
peanuts
premium
imperfect
frequent
wrestler
battal
vegetables
summers
stalking
schmidt
prosecution
23rd
essential
soviets
compensate
unreason
swede
sleeve
tatiana
exaggerate
exploit
gazzo
carrot
interfering
egon
improvement
succeeded
##girl
arrogance
linen
aspirin
crafts
sustained
announcement
arab
arroway
toothpick
cramps
penitentiary
comprehend
debrief
tropical
bahamas
asteroid
mayhem
##thorne
rapidly
restraints
handcuffs
seminar
restraining
sausage
evidently
bimbo
krem
abstract
trifle
johana
grandchildren
skeptical
festival
pusher
bergman
incompetent
yoda
stenographer
pablo
outdoors
barbecue
gilded
beggars
gravit
antenna
orgasm
preoccupied
transvestite
juvenile
telescope
kobayashi
bmw
klaatu
alyssa
##innati
chloe
rebuttal
46
aches
aux
bry
ching
cess
cact
cuss
cinc
cries
fon
fitting
gand
gel
gork
gaff
hips
jell
kop
kessler
lur
ming
mma
niet
nym
og
oasis
ping
pta
pors
rou
ringer
rik
sierra
tents
vast
void
voted
wop
wishing
wimp
wolves
zimmer
##iour
##cases
##hop
##rater
##dock
##dles
##lac
##lical
##uity
##tu
##tra
##pea
##made
##muda
##bies
##bach
##bula
##job
##jah
##fold
##wick
##zuel
##zburg
##15
##ertain
##eroph
##inous
##onal
##orus
##enson
whoops
##owl
##arming
##isure
##itarian
##omi
##utical
android
beamed
reign
reyn
weaken
megan
##lda
ish
shipped
##kees
##aling
notch
##sea
noc
##chron
##ams
##antly
##eee
##ooey
##urst
nebula
getaway
abilities
frogs
chis
choo
trent
troy
troph
trooper
thinker
suez
##ppin
debi
decks
##una
herring
alimony
alonzo
##inda
sau
manray
loot
pliss
##istically
selection
##ulum
gund
guided
##venworth
wills
##astics
##obia
hadda
amar
amused
drisco
##ouss
##aper
leisure
caller
##feld
peas
overall
aft
unim
unite
unhe
quid
bloke
##oya
killings
##agara
##berries
marble
mario
marathon
##eluj
##ected
##urel
nighting
roston
newsw
putz
crad
crate
throb
perrault
uhhh
lav
flock
missoula
listenin
##eph
hearin
womb
serp
##shots
resid
##ivate
camelot
slag
sledge
recre
chevy
cheesy
charging
charenton
commend
committing
ahold
accessed
daft
menu
harms
##ails
##lesley
farren
barking
jackass
##ultane
senators
unto
diem
excl
evolve
mills
skank
billi
seth
specially
trustworthy
simultane
consuel
colet
delaney
##nec
##neil
incor
incom
##ologically
burying
concussion
hangin
redhead
senseless
muslim
worthwhile
extrater
refusing
ballroom
ballplay
uncont
uncertain
frontier
favorites
masry
imagin
brainerd
addicted
darkest
marking
##ocity
flyin
condom
condoms
walters
purg
superb
superiors
superintend
pressures
##brand
viruses
bases
deviant
valium
strongest
cabins
cabbie
toughest
baths
weirdo
weirdest
denham
turd
tai
formula
formality
lays
catast
bombed
escobar
halle
halleluj
thirds
sadness
roma
ella
rollo
fishy
fishin
puerto
equation
nosey
##annon
karras
sails
sailed
draws
drawings
sensit
rainy
rainbow
hyg
comforting
collector
talia
gimm
rubbed
norfolk
hostility
bathing
cooped
dancin
portable
technician
belleroph
febru
projection
software
terminated
pools
##iatric
##aminated
angles
mutants
apparent
rambling
pocketbook
immunity
communicating
crowds
punishing
mentality
nicest
emotionally
scripts
ledge
tailor
plainly
fingert
rhode
rhodes
shifted
safest
sweaty
implied
attempts
cancelled
rewarded
gateway
semester
beams
pitched
tuxed
pizzas
stamped
flashlight
automobile
qualify
chambers
beasts
applications
obligations
recommendation
pornography
fruitcake
clinical
joshua
##arajah
produces
hesitate
ministers
reviews
phillips
corey
litter
##uthers
occupy
mamm
niagara
fluid
cowardly
salvatore
neutron
consequence
burglars
documentary
scraps
nikki
wiser
trembling
miguel
episodes
items
chimney
beliefs
alfredo
recruit
prosecute
casualties
stirred
genuinely
sioux
gramm
translate
merciful
miy
##ffeur
frustrating
crazier
decorated
worships
amateurs
parrot
penetrate
lemonade
dismissed
gymn
whitney
shaped
bruises
resource
weeping
consultant
sutton
carnival
maharajah
correspondent
toothpaste
carriers
##uji
stairwell
ooze
tumor
clicking
pancakes
shangh
irene
flavor
emmi
emmett
destructive
dolphins
convertible
charlotte
tomatoes
figgered
theoretically
inexper
feminine
daryll
earthquakes
epidemic
##iffel
woah
algout
scruples
mordech
spontaneous
astrona
tidy
whittlesley
duplicate
ultimately
reinforcements
enlisted
misdeme
mcgill
lundega
monstrous
devastated
cinema
hinkel
mosqu
apprentice
teasdale
reconstruct
authentic
grampa
bakery
biblical
bodega
loneliness
peoples
hinkley
venezuel
chauffeur
calloway
morlocks
impeach
tribunal
##ukkah
alamo
madmartigan
casanova
rubbish
gravitational
cincinnati
kopals
nymph
reynard
plissken
driscoll
extraterrest
superintendent
hallelujah
february
mordechai
lundegaard
43
57
56
76
84
bake
bash
cmon
dunk
ech
fists
fury
fangs
gad
gorman
huckle
ion
ire
igor
jor
jup
kiki
leel
lens
mute
mumbo
ostr
oops
pix
pank
poof
rol
rites
rache
rushing
sny
vat
yur
yorg
zow
zach
zorro
##iences
##cers
##hall
##hist
##hol
##rom
##upt
##mad
##mons
##mobile
##vation
##bin
##bbe
##bah
##bugs
##wit
##xious
youll
##eri
##aters
##onimo
whiff
anom
##owed
##arians
##isms
##itis
##itating
##recy
##uting
##ayed
heater
beery
beac
rewards
rewr
meurice
mebbe
hap
halo
doom
doss
##ghead
##ldom
goals
ist
##alg
##aled
forge
##imated
donation
donkey
stagger
liability
##icating
nood
noct
nost
nobles
##chn
##ithm
##entin
##entive
##entennial
##eek
sooth
allig
alloy
outburst
aston
prying
##stri
frantic
chal
chink
upbr
tron
trashed
hereby
sug
sued
deception
heresy
oracle
saud
##igible
manages
ohhhh
loft
##ucking
exits
exley
##olt
##endon
somers
brent
brung
spitting
conner
everytime
haddon
maynard
carc
carmine
amish
droid
aging
clum
lever
enroll
enlar
pep
overf
overst
unin
unner
quentin
##emore
blas
blaine
blender
muham
scur
cog
hubley
underp
griff
grimes
lifeform
lifeboat
afterward
afterlife
crick
cruz
leavenworth
elit
swings
partially
ads
adon
minst
realizing
##urned
##acles
missions
listens
secrecy
##ogical
runners
faw
##qual
stressed
housekeeper
##leman
morons
morrow
resolve
crappy
##iviere
parallel
prover
recl
recy
warne
sonuv
huron
watchman
cleans
readin
##ilyn
harp
tenor
##ggers
farrag
barge
barrington
decade
dared
darien
excal
excess
shutup
breakin
hurtin
skate
skies
hitter
bulls
humility
##ieri
infamous
syll
factors
airs
delic
delir
hunner
instructor
starboard
sorted
certainty
##ups
watermel
collateral
defence
salmon
admissions
rider
murdering
regulation
concannon
petition
painless
##apeut
##liner
ern
filing
filter
builds
studios
advances
uncon
uncomm
transcript
visible
distinction
masquer
squire
squeak
addiction
centers
posit
merci
pastor
privy
covert
reply
penance
oughtta
##zzi
costa
generals
courtney
rays
machinery
jefferies
devotion
valve
valerie
investors
lariviere
garlic
packages
cables
boris
doubtful
publicly
sheronda
sanderson
detected
jameson
cardboard
bleeds
niner
##iliary
lads
laddie
produced
accounted
geronimo
tasting
dumbass
empath
luci
##loaf
settles
settling
##affrey
castles
limping
moder
moderation
deliveries
macready
macneil
estates
sanity
marries
crimin
seag
seafood
sailors
drawers
holoca
royce
intruding
mcdonald
mcgovern
ghoul
collective
talents
renting
rental
therapeut
norweg
leeches
hostess
panama
frightens
baloney
mixture
portug
scarce
fees
bermuda
ignition
successfully
##ricks
breaths
raping
termin
randal
sundown
stanzi
providing
describing
venus
kris
ryuji
shhhhhh
moody
mccaffrey
wilkes
snowball
chopping
joints
meatloaf
poisoning
poisonous
##etera
punct
execute
sexuality
talley
naomi
oceans
includes
funerals
lisbon
cartwright
gaye
spelling
approaches
peek
strangle
dumpl
falco
antiques
amounts
panty
sedated
bangs
twisting
unsolved
officials
rescued
bouncing
webber
##strom
monkeybone
predator
critics
chewed
accomplice
tends
lipnik
recommendations
assassinated
tags
vessels
cereal
blasted
farts
##blance
scanner
whistles
methodology
nobleman
conceive
savior
savages
##esthetic
academic
actresses
bootle
##oooooooo
oaks
privileged
sympathize
hanukkah
lectures
puffy
legendary
premiere
monitoring
interface
tonsils
tutor
warsaw
concerts
##izzard
syndicate
criticism
dictate
dictator
octopus
intimid
faintest
prosecutor
essence
groceries
nominated
rasp
synchron
telegrams
liverpool
distracting
traumat
puppeteer
lancelot
khan
vibrations
skirts
retrieve
perpetual
hallucinations
diplomatic
flooded
specimens
purchases
regional
baptized
prettiest
abduct
achievement
boiler
sacrifices
rituals
rehabil
aaaah
inquiries
evacuate
ivan
negligent
negligence
putterer
townsend
overwhelming
gorilla
bribed
advertising
continental
anticipate
variables
hydrogen
hartman
ruler
stranded
slayers
sleaze
catalog
drooling
prejudice
repeatedly
challenging
inheritance
democracy
korean
organs
perverted
glamour
cappucc
transporter
videotap
bicentennial
funniest
russell
dobisch
phenomen
liebkind
hypocrite
infrared
athlete
strategic
flexible
cylinder
enthusiastic
##anthrop
##idelity
ounces
questionnaire
infirmary
##iocese
impotent
expendable
unreasonable
auxiliary
cactus
gandhi
gorkon
bellerophon
miyamoto
misdemeanor
huckleberry
ireland
leeloo
ostrich
snyder
yorgi
zowie
upbringing
haddonfield
farragut
holocaust
cappuccino
68
79
74
900
ai
apt
batch
cone
cens
cuc
ciera
dc
dm
dj
dome
dul
doth
dense
dye
delly
gat
gap
gav
gender
hh
hens
hittin
hilton
ick
icy
jest
jug
jorg
ky
kap
kint
kung
kamins
klein
lh
louse
lured
lomp
mh
mit
mose
nada
pm
pak
ri
rates
roul
rookie
sly
sven
sized
sss
vert
vivid
wench
yoke
##aver
##iene
##non
##cill
##ho
##haven
##kar
##del
##drop
##lich
##yman
##track
##pan
##vich
##bitch
##eroy
##inform
##ati
##atr
toont
##ingham
##ority
##orhe
##orvich
##enne
anus
##arations
inver
inning
input
reef
weiss
dost
doole
##uscript
onion
gozer
shatter
shaken
shattered
##aler
fors
forming
##iman
sta
stain
notify
##icer
##icies
##icuddy
nos
waski
cane
##urable
nekh
getty
soy
abn
abra
allah
##sten
##sticks
##heres
frat
frock
chant
chub
chipped
chaser
shemp
truce
traces
##ieu
##estro
degr
herd
seeya
mann
manure
manhood
manuscript
loony
##uckers
##ifix
usin
timid
##rave
extern
##olism
willy
compress
comics
compton
spat
spunk
carved
carav
drastic
##ousine
agony
agencies
agatha
clips
clicks
leeds
##tyard
unle
unident
##ems
##ements
##emont
blames
##aggio
marilyn
scots
cov
coins
hub
dayton
##ffer
##ffle
grin
grunt
soran
sorority
waist
##wny
##actory
imitation
jolly
plea
rembrand
maestro
croup
##adys
poe
poetic
##asser
##izers
probie
probability
courtyard
##oodle
adapt
##ossal
hoff
realm
realise
greatly
##acher
perk
peru
peril
perkins
monitors
careers
handsh
##into
##ogy
##ogged
disl
dislike
paraly
schae
schneider
boll
tonic
slate
slides
slugg
recip
cheats
cheque
##ignon
contamination
charter
warming
warrants
policies
pref
survey
##ailing
holder
schoolboy
capone
metall
pickle
eyew
##lington
checkbook
fifties
decre
decoy
darcy
booking
##eeth
hott
aww
awaken
simulator
exploded
consig
consol
consarn
jezzie
signatures
significance
airborne
lighting
importantly
depinto
starb
stevie
detest
detention
discred
##avia
##avier
benes
geographic
collapsed
elek
##ushova
deform
salzburg
salieri
burbage
riders
sentences
concord
arranging
legacy
curb
filmm
driveway
studs
extend
extended
extensive
extrad
proph
midst
##ddle
impound
trains
radios
tyrell
squash
nearer
mercut
pleasures
##cox
disappro
disappointing
judged
judges
mischief
apartments
cryin
lara
affl
##going
packard
irreg
hopper
birming
demo
lords
boatman
dennings
witwer
sandef
iceberg
occurs
##iggs
arrests
camping
violating
tempting
prodig
stripped
vermont
puzz
limousine
photon
digs
sensor
sensual
##uthorized
cocked
quarre
speculate
##laim
blockbuster
intrusion
difficulties
jugg
collectors
washes
claremont
exceed
julius
taxpay
fellowship
pretends
pretended
##ronic
cracks
crackpot
baton
batting
martinis
balbo
balanced
oddly
malign
matched
stocks
bellev
berries
emergencies
freakin
generate
generations
generosity
objective
pathological
tita
rapids
galbra
licensed
ugarte
olives
tours
booby
boobs
ramona
diab
attorneys
gaming
kayleigh
furthermore
immature
sociopath
remained
females
cyril
gallon
storms
hawkeye
pairs
punching
unharmed
funded
buffet
hillside
blankets
bedrooms
encouraged
cartel
gayle
behaviour
processing
typically
##ermo
variable
poww
rhonda
illegally
chateau
scratched
unsub
instructed
wyoming
novelty
predic
semple
hayworth
liberal
annex
montoya
chinaman
surgeons
replacing
revenue
advantages
gains
ribs
vitelli
kuato
assassins
pursued
achieved
cerebr
deranged
passports
##blers
habitat
dyke
deduct
dedication
franch
deposits
rebell
paradox
declaration
ozone
triangle
clifford
spilling
networks
bolts
announced
announcing
hints
aiding
spectacle
resigned
niki
nikko
paleont
greece
bidding
pollux
vegetarian
dugan
vicinity
platoon
unauthorized
mythology
possessions
compensated
ditched
##iasm
helmuth
sleepless
hysteria
rasc
rasput
plotting
sequel
initiate
munro
selected
gynec
mercen
neutralized
rearr
klingons
inspiring
corpus
penetration
dubious
electronics
fisherman
hindu
reassure
consumed
penguins
bambi
coupon
georgina
commodity
baptist
polymer
transmitter
carniv
feathers
dartmouth
kelvin
crucifix
twenties
cocoa
rhythm
biscuit
ecst
arkansas
cockroach
accompan
styles
stimul
hendricks
disconnected
rooft
ruling
thighs
jeopardize
petersburg
verdict
obscene
chooses
emptied
await
yakushova
inferior
housewife
magneto
accusations
behaving
microch
siberia
observer
gilbert
##chmacher
troopers
glands
hitchhik
yogurt
algeria
pyramid
kurten
parachute
chaperone
liaison
supermarket
teschmacher
seizure
exquisite
marseilles
cochrane
chevalier
database
sacramento
porsche
chisel
nightingale
harmsway
consuelo
ballplayer
tuxedo
shanghai
mcgillicuddy
kopalski
saudi
jorgensen
kaminski
lompoc
toontown
##orhees
nekhorvich
external
caravaggio
rembrandt
mercutio
birmingham
sandefur
bellevue
galbraith
rasputin
81
9th
ave
ald
bery
bows
baw
binary
bending
bomber
cb
crib
ctu
dus
dang
diction
elly
elder
fender
fumes
gail
gills
geller
kg
kook
kab
kool
kens
lother
lath
lana
liner
mb
mab
pom
porth
pots
pino
pomp
rents
rhin
sith
sans
uc
vu
vee
vand
vial
ww
wain
wuss
winton
xk
za
zh
zur
zap
##nut
##near
##nne
##crow
##holl
##eon
##dick
##game
##pired
##puss
##pio
##mac
##mary
##mott
##minate
##vil
##vol
##bas
##bery
##fits
##witty
##erit
##inet
##anny
##anche
##lli
##llium
##enous
##enged
##arna
##etting
##asher
##aska
inoper
hex
heid
beet
beyn
beads
weeds
mellow
whatsa
hab
hale
dove
##usive
onna
isla
shrew
kneel
steep
stans
stated
stages
staked
noticing
##ican
##icides
noel
##chs
##amm
##amie
##amatter
canal
canvas
##urf
##uration
##urai
##ceeding
##ceivable
##ional
sob
socc
socially
soaked
justify
allie
alliance
outwe
wantin
prest
prud
prair
fritz
chu
chir
chipp
upl
upstate
trough
tripping
##oping
athe
anya
howl
##pple
dej
depl
deja
deleg
herald
##arten
sauc
sabb
##ige
mank
managers
##ifting
##istical
seize
seldom
guides
hisself
argo
arithm
arlington
##atement
##vene
brow
bris
brum
brides
bricks
lettin
##aka
##aky
##nace
carib
amp
amado
dripping
##apers
agenda
cler
clive
clob
cluster
leverage
peps
overrated
quell
quiz
quits
moor
marg
marzz
marcel
marlowe
##elin
cokes
##issen
hubert
underway
evenings
grotes
nightfall
helpmann
siren
lifeline
longing
remov
mait
crest
crows
leaked
##dermott
thresh
elm
elster
eladio
##pto
ade
adolph
shitload
lotion
perch
perce
perish
pervers
uhn
##urnal
lacr
monop
monaster
assert
understatement
acute
flint
handbook
philly
phaser
##oga
threepio
##ordi
disor
disallow
showers
strader
##pring
morality
wasnt
##ivated
parks
worldwide
insin
insured
prostit
prohib
camels
hardcore
bozo
charmed
warmed
funky
##uba
##mani
##manus
businessmen
lively
##rov
premed
dahl
compact
founded
harlem
stuffing
##ettle
barric
jackets
##ibur
preserved
untie
countdown
halfdan
booker
excessive
millimeter
skiff
skyn
hitman
billing
obit
obno
awards
grable
##ahad
indication
config
murman
syna
firearms
starring
discrim
retiring
benson
geography
geordi
forgery
whitey
burrit
robe
robins
wines
singles
petr
pets
winding
legisl
subm
suburb
curl
hangover
magda
bobbie
samurai
clearance
refuel
props
classmates
ballast
uncover
transsexual
trainer
meds
locking
humanly
##awk
throwin
mouthful
markers
##oculars
respir
flynne
protector
condo
##coats
territor
penfield
stickin
##zza
palermo
ordinarily
chickened
casbah
valued
blueprints
packet
juneb
denby
cashier
sherwood
motels
dunn
dunwitty
screwball
lowry
commune
191
silo
fatig
boardwalk
ellis
stripe
striker
germs
southwest
frenchman
apologized
definitive
fails
##inois
louisville
pushes
furnace
sensed
holmes
cockpit
bandages
mcdermott
mcmanus
tapest
clarendon
clarinet
excels
exceeding
auditions
leech
crackers
melan
reprieve
authorize
swept
masses
trials
lesions
switches
archae
poolroom
roberts
lucille
fleas
galahad
bonding
flights
characteristics
rosie
rumour
rumours
severance
venza
fridays
britons
ramos
whispers
reactions
mccay
gallons
logically
bums
punters
miraculous
executives
corned
sneaked
telephones
189
primer
traitors
butterfield
traded
##nnnn
concentrated
125
junkies
dispute
cultures
behavioral
voorhees
dimin
chatting
underworld
puppets
foreigner
claymore
tuesdays
ooops
ooooh
bouncy
librarian
##strong
acquis
challenged
microph
courageous
grayson
qualifications
nuwanda
debut
contains
container
stretched
utmost
spooks
achilles
falsely
hesitation
##weil
pedal
rican
electrician
dyed
hacked
tassel
pacif
omigod
adjusting
adjusted
21st
aggrav
kinnear
rifles
booty
steaks
editorial
chamberlain
bulb
nesting
sparrin
spectrum
jahn
wrestle
colonies
waltz
greeks
humpback
dismant
bidder
analyzed
spinning
intimacy
memorize
fainted
injected
auditioning
kurtzweil
drilling
lonnie
##omaniac
measly
inconceivable
nomak
skeleton
yankees
econom
selectman
strawberry
translation
confirmation
##alyst
crowns
craziness
republicans
penetrated
egghead
consumer
egyptian
vouched
sincerely
bruise
750
metaphors
abduction
gulls
dalton
romulans
manufacture
grenades
guilder
evacuated
fulfilled
electrocuted
diagnosis
rashid
staircase
overdue
jaguar
aaah
cinch
interpretation
evaluate
binoculars
departure
errands
ulcer
embezzling
discharged
indoors
enthusiasm
vocab
choosing
braslow
calculate
sculpture
contradiction
saddam
##keeping
kidneys
fronkon
housewives
wudan
wuddya
oversight
disneyland
bullshitting
synthetic
sarcastic
riviera
resemblance
insecure
dorsia
jinx
passwords
geoffrey
transplant
##atisfied
mayflower
marvosa
persecut
stricken
bayonet
kittridge
obedience
fleming
plutonium
lyndon
bolshevik
condescending
eminence
preliminary
detachment
kenneth
shrubbery
acknowledged
vapor
zuul
mundt
transfusion
argentina
archdiocese
gunderson
sensitivity
extraterrestrial
jupiter
clumsy
overflow
muhammad
proverb
excalibur
uncommon
therapeutic
traumatized
unidentified
croupier
bollocks
powwow
beryllium
kensington
wainwright
zaius
##holland
heidi
soccer
outweigh
arithmetic
brumby
pepsi
marzzone
grotesque
removal
monastery
disallowed
skynet
obnoxious
territorial
junebug
53
7th
ail
aide
bach
bork
baff
cider
cotta
dore
dade
dames
della
ez
ehh
eiffel
fading
gurn
gaps
hul
housing
jp
jorge
kos
kul
kamp
kai
komm
ls
lint
lub
lyle
mode
nast
nyl
naming
ome
pater
pave
pont
pending
ration
roust
sart
sate
ting
tame
titt
taint
titty
tiring
vult
wink
watt
wann
yv
zer
zimm
##azy
##aug
##iated
##ienced
##cine
##cular
##kk
##kis
##kies
##oats
##dream
##liness
##gom
##gots
##mill
##mama
##mute
##van
##bust
##jac
##jane
##wun
##xide
##íre
thai
youse
##inis
##inov
##onents
##eny
##esis
##esher
##arin
##eting
##etrack
inaug
##real
##repr
##utch
anderton
heist
heating
reagan
rewind
##ereign
hams
##lector
##iddy
goo
gook
goering
shi
shud
shiv
shucks
##kell
##keby
forum
##imited
donor
knicks
stint
stature
lig
lionel
lili
notor
##icators
##advant
wastin
myst
##ustomed
##chi
##chon
##among
##amine
##enteeth
buts
##urg
##alled
##allister
nept
nebr
soak
abe
##odram
##stop
##stak
##stated
##stead
fren
chino
chlor
choking
chorus
sheer
uphold
trub
trumbo
suing
##andra
veil
worthing
##uns
alison
alias
##igma
lobe
goody
plum
platter
timers
##oslov
sears
semit
semen
##ulet
guine
##oler
arent
arter
arbit
armani
comments
##endo
##aby
broth
brouss
meaner
spur
spout
spades
cary
ames
##oused
##apy
leans
enters
envelop
peg
pem
downs
unqu
bypass
bloss
intoler
buick
buggy
marguer
scab
scuse
scanners
daydream
underdog
grouch
gretch
nightcap
newport
imped
imbal
longsh
pleaded
beforehand
maura
crud
crashing
leaking
##assed
throats
elsa
kinderg
probable
swarth
partying
advers
miniat
boycott
perj
homeboy
monte
placement
##acious
##ogram
ida
disadvant
hiking
stub
minding
strasser
seraf
##she
headin
morally
resolution
paral
parlay
insul
insub
proc
##ported
weekly
slush
slips
sloppy
recipe
contaminated
meetin
sonar
##hnn
glum
gloss
gladys
ahem
finland
fambly
seeming
payoff
dale
invaded
pau
barons
barging
cutter
jacked
sounder
wonderland
shostak
##ibu
beauh
sleepin
edwards
countless
fifteenth
deciding
daring
darwin
bookkeeper
caves
evans
eighties
genre
awe
bedford
luckily
heartless
graf
grabbing
earp
humming
indis
indisc
indiffer
confisc
##retta
consort
colossal
shooters
delhi
pullin
followin
followers
firepower
honeythorn
incrim
buyin
##avo
##insky
watered
##oko
eyesight
snooping
defy
deficiency
burgers
robot
ester
esper
grandad
grandmama
registry
touchdown
winners
petting
suspens
subd
submar
erad
louella
refres
saturn
greenteeth
straightening
sellers
destined
##tenfuss
entrust
colds
owens
squares
losin
popping
poppy
darker
topside
felon
felicia
##ombs
foods
dougl
##ocation
accidently
repet
repell
repulsive
fixes
##fortune
sung
sungl
sticky
judd
presses
##brook
laughin
rockin
miscar
misfortune
ordeal
casket
rosemary
hopin
demise
damages
suitable
closure
closets
borne
layout
toronto
boxing
catac
viola
belongings
stationed
vera
luh
mirth
suggs
module
congreg
directive
aviation
macdonald
particle
posts
postal
investigated
wildlife
amazes
karma
furry
##ueless
gaskell
sensation
divorces
blockade
intruder
sharon
sharper
mcallister
slew
sleazy
existing
auditor
reminding
organizations
franco
looseleaf
melodram
dancers
cupboard
malaria
malibu
screamin
sarris
agreements
precision
matching
lesion
feat
objects
titles
arche
archive
assistants
boner
##heads
combinations
voltage
mutilated
rams
diabet
speeding
releases
immoral
designated
shhhhh
diseased
cyrus
mccall
mcclus
wilfred
wilshire
sinned
corrob
bumper
domination
matin
kirkeby
mentor
scripture
pumped
appointments
hillb
stinkin
blondes
guarantees
lenin
unlimited
silverware
surfing
pinkerton
snappy
negotiable
pianist
rhian
whorehouse
antique
dispose
disposition
tabs
mileage
ronny
shielding
nineteenth
wintermute
bravely
internship
intends
unsure
circumstance
oooo
bureauc
congressional
padded
cheeseburgers
cynicism
acquire
wyant
haydn
montgom
pizzer
affects
flashes
disgusted
tendency
rancho
osborne
financially
thrilling
exercising
picass
francesca
brooks
##namon
outfits
nedry
lobot
complimentary
initial
peddle
pediatric
conducting
wormhole
temporal
dedicate
buddha
kilo
flux
##ooooo
privileges
bulk
palmdale
waitresses
prevented
whatsamatter
cloaked
sovereign
stallion
limitations
hutu
##escu
shouted
increasing
nanny
leonardo
bogus
multi
aggression
summon
bluffing
tolerance
sweeping
disciple
wadn
mocky
relatively
diploma
ayuh
translated
gypsy
blackmailing
distracted
traumatic
neutralize
frustration
exploitation
praise
obstruct
czechoslov
sicilian
dublin
tango
manifested
altar
queers
historian
cassius
durden
whitman
pods
brewery
metaphor
metaphas
catering
tucked
underestimated
insights
folded
1995
dalai
threads
ingenious
stubbins
treasures
tsk
tsavo
indulgent
immortality
fulfill
nostrils
crucify
rudolf
vagina
superheroes
immigrant
tumble
wickwire
comprehension
overwhelmed
uneasy
thermal
cinnamon
presumed
navigation
diversion
rooster
drifter
burgund
pulitzer
charleston
enhance
enhanced
impersonal
antonio
calculations
asteroids
daryl
fibers
fertil
earthquake
cyclops
allegiance
comanche
motivation
challenges
accusation
graphic
akron
loathe
sultenfuss
scoundrels
mediocre
bikini
voters
pronounced
bixby
nipples
velocity
poached
sniper
mcintosh
indigenous
artifacts
refugees
massacre
crocodile
chastity
peerless
emphasis
swiped
stratford
degenerate
sizemore
xenia
stooge
bridges
improvise
ceti
dottie
udall
hoagie
encouraging
sophomore
cauld
ottos
bryant
trophy
newsweek
simultaneously
hygiene
fingertips
grammoo
venezuela
pankot
beacon
dossier
alligator
somerset
blasphem
minstrel
sonuvabitch
videotapes
cucamong
henslowe
lhasa
roulette
dooley
abraham
handshake
elektra
irregular
balboa
kgb
mbwun
##arnais
shrewd
prairie
sabbath
caribbean
threshold
monopoly
microphone
cottage
gurney
kommand
wannab
nebraska
broussard
marguerite
gretchen
kindergarten
miniatur
serafine
insubord
shostakovich
beauharnais
suspension
douglas
sunglasses
auditorium
diabetes
montgomery
czechoslovak
cucamonga
95
bied
baza
ci
cc
cuck
cul
cull
cope
cement
cds
das
dia
dorn
dib
ether
eich
ewe
fad
fain
fatt
gator
gaw
hasty
jr
jit
jig
jaws
kam
kittle
kins
lan
lorr
lash
moo
moul
mesc
makers
miggs
nab
nlf
nug
nilsen
ov
ove
ore
oyster
pows
poul
poodle
roose
sz
tul
ust
voss
vlad
wong
wanda
xavier
yay
yllo
zander
zebra
##aith
##nier
##call
##cans
##ccept
##han
##hot
##hart
##hbert
##rer
##rates
##rists
##oi
##dad
##draft
##driver
##lime
##gal
##god
##pie
##blin
##bilt
##bishop
##birth
##wig
##witt
##wau
##weal
##zai
##22
thug
thaw
threes
##inty
##ono
toons
##ingson
##orf
##enas
wham
##isley
##itri
##itness
ine
inad
inade
inmates
##utton
andr
hewitt
rect
reese
weve
haze
##usible
onboard
shm
shaky
##alom
##aloo
##alamus
##ima
dong
donuts
stard
stip
steen
stained
lipp
liars
liby
knowed
##aders
##amish
##illo
butth
##outhing
neill
abroad
allan
likewise
printing
frisk
chey
chills
chaste
shepher
trout
trend
truc
##ellar
vector
##ppers
##estion
deird
deme
alo
alp
orn
orth
orgy
saig
##igation
manch
goodies
##arded
seism
sections
##ulary
export
willa
comical
##astically
brod
brute
comeback
backdraft
##obi
##ourse
##aki
spud
splin
spills
conan
conting
conception
talker
twas
mayol
caret
amput
fucken
leer
leve
legged
##oughs
##riage
pecker
overly
overest
overpower
quittin
moors
blush
intra
intensity
mugged
##berish
marl
marm
margin
scour
scagn
coon
undis
undet
##urek
yearbook
##ishes
grieve
greta
rog
wage
newman
reman
believable
mae
##udes
cret
polly
frivol
eli
elroy
swicker
smurf
perks
perceptive
lacer
laurel
mona
badges
##acent
aces
fling
flares
flask
phr
##ogan
buses
idol
hearse
hippie
##quist
tomm
motherhood
strokes
##eyed
resounding
crabb
inscription
momo
slid
slop
slum
saws
contro
charitable
sonris
whichever
businesses
##roc
sixpack
brean
accum
accustomed
readout
daitz
invoke
comply
composed
composition
dese
terrace
endings
endured
farley
holden
cuthbert
babylon
beaure
editing
edges
restroom
jesuits
figur
decap
decipher
giul
shutters
caul
cavern
lawford
skrap
skippy
genetically
bedbugs
questionable
simms
simulated
numerous
graft
doorbell
doorstep
consume
colt
airstri
delac
delbert
engraved
lightweight
milwau
blacked
depot
starla
detour
incar
incur
incest
buyers
retro
##erties
newsstand
geom
messin
snif
defended
saliva
admits
sentry
sentenced
conclusive
arrows
alongside
##soe
legion
sublime
##velt
##lination
redeem
filters
sami
##umbles
clearer
proportion
properties
richter
profanity
ballgame
uncles
visions
misty
medals
buckle
landy
bankers
##owski
entrap
entrepr
owww
##ospher
typh
imaginary
merk
mouthed
doubles
operated
viking
markets
##ocate
##ocrat
wales
terrence
costing
##bruck
rockets
courteous
burnfield
casy
casinos
kickin
eyebr
commanding
illinois
solving
solitude
irwin
hops
birdy
enjoys
practices
##ricide
tickle
suitcases
bathe
denny
crossroad
turley
##iko
governments
##eship
birthright
torso
letterman
ninja
##iliation
romans
greenhouse
ellingson
ceased
rollin
##uctive
fills
stripper
preparations
##cutt
accepts
colorado
esteem
particulars
equations
electra
louisa
depended
antig
digger
fitness
constr
constable
hype
vaccine
boyfriends
tighter
tighten
clara
fingerprint
francie
loosely
melissa
bala
lamont
lambs
##rophe
conditioner
janey
janiro
scarred
authorization
jennie
supports
commonweal
features
berry
creeper
lasers
professors
rapes
hamburgers
bono
satisfying
angora
originals
tournam
booger
dragons
ratfuck
fanatic
revoir
banzai
weights
reacting
regularly
stomp
developments
hawks
bummer
creams
adamant
sneakin
maple
quota
chapin
chapman
celebrated
mortg
20th
stinky
representatives
vulcans
travers
nutshell
psychiatrists
spelled
unfaith
variet
eleventh
negotiator
mathew
mathieu
floris
florence
120
rhym
briefs
briefed
periods
diesel
confirms
loaned
renown
scratching
##cliffe
unsc
hooper
hoops
squadron
assumption
##ivalent
toilets
shelters
froze
deceit
despicable
psychoan
predicted
buns
pours
cadets
shawn
##ohl
coincid
escapes
grier
mackey
dipshit
whacko
containing
katka
tubbs
versa
kimball
clinics
pursuing
cruelty
drumlin
##knife
intentionally
flags
conceited
gutless
hauled
occupational
tanner
alternatives
adjustments
sewers
cowardice
cliffs
columns
biology
razinin
functional
deejay
hitched
nikes
ranks
concepts
monitored
weaknesses
imperative
frequently
greeting
receptionist
sparkling
bogyman
criticize
sprayed
intimately
essentially
greyhound
casualty
unaware
unaccept
shoveling
scams
applying
muncie
naval
symptom
crazed
craziest
1984
gaze
fragments
carrots
carolina
severely
scumbags
jayne
vibes
smugglers
jacobi
hallucination
multipl
multiply
accomplishments
heavier
shapiro
bruno
sodium
outsider
expanding
molest
odor
arabs
infantry
oleg
bouquet
unwilling
insects
elden
kelson
converted
##court
compassionate
kraut
cavalier
ludwig
##broken
enlightened
anticipated
patriotism
navigator
henderson
concealed
overheated
implanted
renaissance
motha
rattling
mtv
retainer
transmissions
555
pharmac
worshipped
fiancée
hormone
ducts
wholesome
plaque
arsonist
compartments
babysitter
democrat
offspring
crockett
sarcasm
masturbation
olympic
squeamish
clutch
scoundrel
musketeer
hypnotized
outlawed
##zsche
trespass
hungarian
hungarians
ruptured
forensics
stutter
aristocrat
newcomer
handicap
distinguished
microscopic
plaintiffs
valdes
vanderbilt
aspects
fraulein
tyrone
chelsea
bloated
mascara
bleeker
enclosed
oeuvres
demented
mcgruder
lazarus
gulch
hepburn
chandler
trivial
schizophrenic
merchandise
nauseous
anaesthetic
outrun
unrelated
infatuation
nietzsche
riker
zimmermann
cradle
serpent
billiards
incompl
purgatory
inexperienced
nocturnal
nostalg
underpants
delirious
hunnert
watermelon
terminator
icky
pakistan
forsaken
paralyzed
schaefer
prefers
eyewitness
starbucks
cerebral
dictionary
porthos
zurich
inoperative
beynon
dejesus
clerks
clobber
lacrosse
insinuating
synag
burrito
vocabulary
fronkonsteen
doreen
kosher
kulok
omega
neptune
trubshaw
paralysis
submarine
refreshing
miscarriage
catacombs
blasphemy
lorraine
roosevelt
lippman
deirdre
saigon
scagnetti
sonrisa
skrapinov
milwaukee
entrapment
entreprene
crossroads
commonwealth
unfaithful
rhymes
3rd
59
89
82
aus
aint
aph
bere
braid
bav
bung
cic
coney
cnn
dic
dio
density
eu
eel
ebby
eaves
fou
fay
falk
faked
fiber
gert
hounds
hann
jive
jeth
jules
jello
jumper
jurek
kon
kite
kaz
loo
lum
lanc
lumber
mes
mook
mish
merv
moles
nip
nintend
pd
pse
pess
rall
rue
rach
ried
rugs
sill
sassy
tic
tion
tach
tamp
vich
wider
xan
yum
yugos
yikes
zee
##iak
##iques
##cra
##cett
##hopp
##kill
##kick
##kens
##kok
##rics
##oving
##oise
##ozo
##dl
##dish
##dings
##dup
##long
##lair
##lette
##lavia
##yards
##uper
##gf
##gard
##gale
##gado
##tore
##pic
##pared
##mfort
##matic
##vine
##vably
##bus
##bod
##bago
##just
##jour
##full
##fax
##zh
##zis
thump
##oure
##erog
##inburgh
##atus
##onder
toying
toaster
token
##ingo
##lle
##llip
##oria
##orative
##orius
whop
whine
ante
anto
anita
##isine
##itus
##itudes
inez
inhib
inquire
##reas
##ayin
##ayette
reek
doggie
goon
goons
shamp
##alay
##althy
forres
##imon
donowitz
stared
staged
stains
libert
nother
##icular
##icrous
noose
wast
##irable
##ami
##entious
##illin
canister
withhold
##urances
solem
abby
abetting
allright
outcast
##cted
prow
prol
pruss
prizes
pranks
prisons
##start
##ndown
frown
framed
ches
chas
chile
upgr
upham
tripped
sula
hows
##ieg
##unes
herm
alotta
##ryption
saks
##igley
looney
logging
placing
plastics
##osin
sez
seated
seeds
segment
gumm
guene
guiding
arbor
brood
brimmer
backers
meanest
spree
spade
spleen
conj
talkie
twit
carpe
##otherapy
clich
clinton
clavius
clueless
lem
##ortions
overh
overth
overpr
overjoy
overwork
unn
uneth
unpar
unoff
quill
quix
quantic
moat
moaning
blister
blushing
##agra
##bering
##berman
marched
coffe
hullo
wrath
wrigley
thanking
thankful
grues
nothingness
roaming
##actic
joad
lifeless
pleading
mai
mao
maim
##udo
##udel
##plug
keepers
##irez
elk
##gett
lists
adding
adoles
adios
adcox
shits
miners
minnea
hoffy
assim
understan
##acs
flake
flashed
flashing
handker
playground
##integr
phara
buss
idle
idah
disability
disintegr
faxed
headline
housekeeping
##ictions
##eys
morg
reserves
paramed
insolent
proceeding
pretentious
boiling
boca
slump
slaw
sawyer
##iances
contents
turnin
turnover
##plement
funboy
commies
watcha
##roix
glauc
poles
folly
finnegan
walkie
dealings
premon
payne
composite
foundations
harri
tenant
endow
##ggs
papp
paisley
schooling
capability
damnation
openers
brotherhood
preserv
edinburgh
##lings
thirtieth
relate
christopher
decay
decode
decline
excused
gunning
shuttles
prompt
evasion
millaney
skid
billings
obi
complication
numero
gracie
passin
earning
youngsters
explicit
confound
confide
infinity
imported
colour
colwyn
colosse
jeh
sykes
delin
delete
delgado
speaker
lightly
starvin
steamed
discon
##nebago
##ensch
##ensitive
##ouche
dinners
sickening
sneeze
deflector
calam
captains
esk
espress
espar
regener
winnebago
array
fallout
singh
singin
curry
curves
curric
beatnik
draggin
raided
raisin
extinction
classics
sats
grego
greasy
impose
imposing
impulsive
##otechn
transaction
smallest
smallville
mistrial
trainee
bankroll
kev
humanitarian
masbath
exceptions
keyboard
fastball
pastry
tote
nickie
learns
pleasurable
maxim
councill
superf
floats
juda
judicial
personalities
cannons
palate
rocker
treaties
bask
triplette
misinter
clocks
honora
investments
kicker
commanded
garters
irving
quitter
cabot
cabana
breathin
brag
suitor
suites
denies
##ika
destroys
destroyer
fedex
sheraton
motions
motors
suckin
trucker
weddings
torches
catalyst
##enched
armies
190
icey
cardinals
escrow
##tinent
arresting
cammar
cambridge
sadistic
romant
greenwich
greenhill
luv
requis
cowan
fielding
macaron
cello
equity
bowel
physic
appearances
extrav
extraction
sensing
recognizing
hydra
pinback
pinpoint
codex
expire
yahoo
politically
##ographical
rubs
ideals
batty
admiring
healthier
malicious
risked
scarf
scarin
routes
stockbro
performances
crawls
customary
feld
feud
laurent
treehorn
motherfuckin
generated
projections
committees
softly
foreplay
assisting
licence
licenses
urges
identities
stanford
volga
branding
statistics
scarecrow
gangsters
wisely
mutt
mutated
mutiny
ramada
familiarity
ethi
gamma
##daughter
lifts
planting
plantation
bradley
fanucci
banister
sundays
fema
salesmen
wilbur
wilkins
galley
gallows
socialist
skylight
115
josé
domain
expressing
accordance
magnitude
##roller
depressive
cubs
quotes
chapters
mortals
targeting
represented
185
lennon
cartoons
stabbing
processor
silverstone
naples
buttercup
enterprises
tongues
peeing
elevators
improving
entertained
##ylock
royalty
seduced
vox
pillar
experimenting
photography
photographic
gears
productive
bangkok
scratches
embry
insults
implore
cherish
canceling
inventory
paddle
boredom
hobbies
specifics
specifications
fags
haywire
deacon
montague
educate
##riela
shaved
tuition
mulv
##manship
replicators
applause
barbaric
bailed
oskar
whacking
tuba
widows
obligated
gabriela
pornos
confessions
kimmy
tentacles
gigolo
convene
eti
ettore
cruising
dissent
dissolve
peddling
barrytown
apric
pleasantville
virtues
dyson
hackers
conceived
tasker
attendant
attendance
attendants
deduction
envoy
sprink
omaha
13th
rebuild
altering
formerly
bowlers
skulls
cuisine
crystals
alleys
grasshopp
symbols
hitching
##holders
ingles
premier
slaughterhouse
profitable
houmfort
vicky
5000
humpbacks
beeper
glorified
bingy
wickedness
analyze
telegraph
1969
enormously
scouting
lambeau
sinclair
weirder
gillette
octavius
memorable
injections
rejection
neurosis
platinum
mocking
unacc
sweden
dynamics
riots
skelet
orphans
initiation
gyps
exaggerated
idealism
lawnm
exploited
praised
decorator
torturing
carruthers
mushy
sabotaged
sofie
guinan
tangled
mongi
plumbers
hindus
hallucinating
cassandra
fuchs
vaughn
nitrogen
slammed
1972
broadcasting
bruised
drifted
sketchy
mmmmmm
bunks
caterer
##polis
breached
orphanage
erection
cursing
treasurer
swanney
eduardo
peachy
brigade
roasted
titanium
fulfilling
vaguely
wagons
maneuvers
windsor
sankara
ensure
ensign
solaris
brazilian
divert
ludicrous
exorcist
advertis
unlocked
mathematical
mildly
##wait
stylish
variation
evaluation
cortex
oriental
embezzle
dispatches
exterior
insomn
nudie
nudity
metropolitan
transmitted
overlooked
cunningham
unprof
fertile
revelation
##ravitch
##ogenic
tormenting
rosenberg
omelet
comanches
disclose
motivated
wholesaler
plausible
coyotes
vinegar
whims
shabbas
eloquent
squirrels
siberian
laxative
supplied
muskie
freighter
bosom
lagoon
musketeers
giggle
rimgale
spaceship
spacedock
bubba
handicapped
cocksuckers
dandy
nadia
patel
trapper
paramount
parameters
cremated
belgian
untouchables
squeezed
unrealistic
souvenirs
fancies
lovett
deterior
unprepared
hemorrhaging
exhilar
contempl
borders
dyslex
plagues
quartet
lafayette
oppression
tabloids
applicant
battalion
kremlin
unhealthy
recreation
muslims
uncontroll
catastrophe
resourceful
gadget
rewrite
astonishing
cricket
adonis
fawcett
recluse
criminally
raspail
mhravitch
abnormal
discredit
deformed
malignant
franchise
rebellion
paleontologist
mercenary
lathrop
mabel
beetle
disorient
premeditated
suburban
tapestries
economics
sartorius
watts
worthington
impediment
imbalance
longshanks
entrusted
mirtha
pizzeria
picasso
metaphasic
fertilizer
cauldron
biederman
nugent
poultry
shepherd
desecr
beauregard
delacroix
incarcer
coincidences
dioxide
eavesdrop
hannibal
nintendo
pessim
yugoslavia
shampoo
forrester
guenevere
overpriced
overjoyed
overworked
unethical
quixote
quantico
gruesome
minneapolis
handkerchief
pharaoh
idaho
preservation
colosseum
espresso
esparza
curriculum
gregoire
councillor
cammareri
macaroni
hydraul
0h
39
37
5th
66
94
96
agh
alder
aquar
bens
cates
cetera
dern
dues
duality
ful
fey
fades
faded
fowl
gore
hive
hoof
hedge
iram
iggy
kle
lumb
lode
lina
mash
mio
mung
mouthing
nc
ner
nes
nero
nerd
okey
pough
pett
pomm
rin
rath
rav
sra
sien
tant
tak
tine
tav
tuts
tilt
ummmm
ved
vort
vip
via
vcr
vidal
voting
witted
yor
yar
yenge
yummy
zin
zeph
##aan
##aved
##iago
##nar
##net
##number
##corp
##hof
##harm
##kay
##kie
##rain
##ruck
##rude
##rats
##raine
##dam
##dled
##len
##lits
##lishing
##ui
##ube
##gt
##gang
##gren
##tray
##pre
##pta
##moral
##bu
##bot
##but
##boo
##bred
##jam
##fo
##fell
##wurst
##ziness
##ón
##ásy
tha
thad
theod
##atile
##ativity
toed
toot
tock
toots
##lll
##orin
##orie
whooo
##estern
##arz
##arse
##areness
##isen
##etes
##itant
##omination
heís
bebe
reeks
rejo
weld
webs
mein
hag
dole
##idad
##ghan
online
ongoing
gogh
goble
gosp
golits
shill
shines
shrap
shreck
shouts
shiva
shalom
##alin
forfe
knott
stear
stings
stipe
stumble
lien
nod
nooooo
myri
mydick
##chio
##anter
##antis
withstand
##urh
##urman
##urbs
getcha
soho
abc
abide
abys
abrams
##terburg
##oding
outright
outcome
outbreak
outnumber
##eacher
aspen
primate
prerog
##stru
frater
chilly
chipper
chimp
upriver
trot
trapping
trillion
##opol
sully
sult
anyroad
##iev
##andi
whos
alarmed
##ilight
ors
saver
saps
manny
manually
logged
lollip
##geon
goodwill
pled
plung
pliers
pledge
##ulment
##ulnerable
exile
##olas
##olite
##olence
##olences
fromber
##ende
##endrick
##abag
brus
brows
bronson
timex
##obic
spears
##uma
hades
twir
twilight
offed
carat
carve
cling
clout
clash
clover
lei
enfor
##felt
##beck
##beard
downhill
oversee
afghan
beta
unse
unions
unru
unka
unkind
bytes
moj
moan
##aceutical
mull
bugg
buding
mara
marches
##that
scud
scatter
scaven
hugging
undies
evenin
wrink
belch
##ipated
giveaway
gritty
grudges
sorcer
roc
rok
rox
roam
roeder
newborn
sirens
longfell
putty
##pled
cray
crain
croon
crises
crumble
##tail
##ango
girdle
poked
thrills
lasting
eligible
kinder
swoll
parting
smudge
aden
##achi
perrier
lair
lacy
homey
monot
monet
monescu
flann
flores
flipping
##ildo
supposin
phoe
phoning
busboy
disable
faz
faust
owning
strut
strode
strudel
serum
##ictive
##eye
morn
morse
resulting
interst
craps
parais
parsons
insure
insensitive
schof
leftovers
boh
booted
yaw
slang
sliced
slander
slapping
recite
contender
appra
funk
commie
commotion
fours
watchit
##rost
##rovert
glare
ahab
##phone
bested
finals
accents
invulnerable
termit
harley
harmed
endea
farming
holders
barb
jacks
##anco
##asha
shoves
childbirth
edith
eaters
jesuit
thirteenth
christians
decis
secondly
##itional
breakthr
caiman
evasive
eights
sethe
##ottle
complicate
awareness
bedev
##uga
luckiest
heartbroken
passages
passkey
humid
conform
consulting
considers
syrup
sendin
delt
delbruck
blackheart
coral
sidekick
truthfully
firehouse
firecrack
madrid
starin
steals
steppin
discourage
incub
incons
incentive
##apple
##ensible
##aval
geologists
powerless
snatched
defuse
defined
defender
almásy
salts
salami
calib
huskies
grande
murderess
regulars
secretaries
concur
subvers
subsequ
suburbs
magical
magnes
reds
erratic
filiba
membr
cleanin
refinery
propri
testa
greased
ballistic
ballistics
impolite
transp
transpar
transcend
annulment
visas
horrace
mistook
dickens
keating
rundown
colder
freck
freeman
fremont
informants
psychos
psychologically
besee
centre
wallop
##undant
doubled
operates
protects
condolences
puritan
michel
##essional
##unted
smarts
rockwell
virge
roadblock
considerably
misfits
shorthand
casa
casing
##maids
telepr
garc
garber
iran
hopping
soldado
enjoyable
##etheless
bragging
bravest
lunches
luncheon
weirdos
drunker
fearing
fearful
turks
turtles
##cessor
dunne
acrob
appreciates
19th
forties
cardi
mains
##bedded
trickery
escal
hallie
bleak
ladders
greenpea
ceo
rollers
rolltop
striped
traveler
geeks
visitation
philharm
luau
modified
correl
calmly
sanitation
continuous
equivalent
labs
laboure
priceless
physicians
appearing
seaweed
corrected
sensory
holed
holier
holster
speculation
recognizes
yellin
##fucker
datura
rained
hyman
##bbs
sharpen
civic
skinned
kenil
audiences
reminder
tarz
bathrooms
admirable
embarassing
balmoral
blinded
blindfold
lament
bearer
malays
screams
heavyweight
receiver
recepta
contracted
civilizations
##quez
swimmin
precog
necessity
##cyte
browns
bodily
##guy
##guided
##ructure
feur
berk
warmth
cornered
projecting
ashtray
rapture
westerburg
termination
roberto
santiago
preference
urg
roster
provo
rummy
clientele
scrunch
volumes
brightest
shrunk
lindgren
venom
boogey
##crity
ramsey
ramón
ratso
speedometer
raban
braddock
bugler
hunts
nonetheless
villages
villagers
communicator
mcconn
scribb
choppers
bummed
expressly
tipto
##affe
sneaky
kirby
unholy
toothache
quarterback
patterson
celebrities
separately
defenseless
morton
hilda
laptop
187
186
facial
lenore
carton
msayin
screens
jabba
traits
nutty
napkin
trunks
pinky
improper
lifesa
oxford
occurrence
sedative
seducing
voila
thyself
whadaya
hypers
confirming
huntington
wolfgang
coastal
embal
##glen
pricks
implicate
spreads
museums
##forward
tempered
cheeseburger
demanded
poured
popularity
deact
mattie
deckard
gripe
affecting
influenced
automated
dizziness
lacks
railway
mulholland
tendencies
kiddies
lunar
troubling
preaching
niggas
kujan
kuwait
##deus
candied
gigantic
tagged
utopia
achie
racism
racquet
diana
ultra
ceremon
blasting
scanning
flagged
bumps
gibberish
litigation
conceivable
establishing
neatly
##liere
grossman
cobble
atlantis
distrust
unbelievably
remarkably
450
cube
sabu
captive
individuals
raziel
deem
puffs
cloaking
ilia
sparks
symbolic
jaime
scrawny
israelis
laundrom
wanders
##atonic
alerted
subscribe
baltus
colonial
advancement
exceptionally
schwarz
rawl
earnest
concerto
werewolves
polls
pollution
sparky
1960
1967
bogan
bogart
patriotic
kristina
wiping
##eaux
disciples
nyu
cranky
architecture
wadda
mocked
myths
revealing
16th
repaired
mandatory
anonymity
sync
cunts
mimms
wraps
drafted
turkle
idealistic
exploiting
interrupted
annoyed
gazelle
convicts
nagging
granny
granma
concluded
smuggle
observations
bondsman
matthews
mongol
travesty
simplicity
##rehensible
bronze
contribute
contributions
perpetrator
##immel
tramps
biocyte
durin
levine
crusades
nitrate
elementary
streaks
harassing
survivor
intensely
sketches
consultation
bunker
boosted
volunteers
zeke
inhab
inhale
inhuman
ingenue
explorers
unexpectedly
manufacturer
woogie
spanking
indulge
indulgence
manipulated
reformed
3000
smeared
disagre
depths
diagnosed
jawohl
sylvie
robberies
brassiere
amusement
cocoon
dreary
loafers
bribery
addicts
sufficiently
mildred
flaunt
flavors
variations
shagging
orientation
irritate
counterfeiting
kobo
patronize
patronizing
constructed
scenarios
vocal
emptiness
categories
tahiti
reversed
waldman
emilio
crumbs
crumblers
battleship
meadows
pharmaceutical
catalogue
dishonor
dishonest
hypothetical
zombies
##keepsie
colombo
hormones
##creen
endangering
endangered
veto
morrissey
behaved
sumpter
enchanted
ambushed
pimps
pestil
perverse
absorb
transporters
demolition
videotape
fernando
mediocrity
pansies
bixler
dabble
nipple
stuttering
update
spicoli
unbear
untrained
indictment
correctional
mcintire
cotter
trappers
tranquilizer
##worms
chigurh
disarmament
reflexes
marshmallow
marshmallows
overreacting
pioneer
twinkies
neglected
mobilize
administrator
obstetric
obstetrical
enlightenment
keefe
norris
taco
intervals
slurp
imprisoned
hypnosis
accommodate
nourishment
tepui
choco
plunge
scrolls
proximo
freezers
berthier
mckinley
ogre
peasants
throbbing
incorpor
taiwan
poofs
sugai
uninv
scurvy
elitist
syllable
luciano
seagrave
norwegian
abducted
phenomenon
gavin
hottest
consigliere
disapproval
icebergs
puzzles
exceeded
diabetic
predicament
rasczak
gynecologist
rooftop
microchips
atheist
maitre
prostitutes
excelsior
lsd
tainted
vultures
##busters
notorious
frenzy
guineas
adversary
confiscated
hillbilly
burgundy
kommandant
insubordination
czechoslovakia
cuckoo
inadequate
libyan
cheyenne
trucoat
alpine
manchur
caretaker
giulia
##ospheric
unacceptable
incomplete
gertrude
rallies
riedensch
solemn
gummy
paramedics
pappas
misinterpret
extravag
ethiopia
etiquette
grasshoppers
gypsies
lawnmower
unprofessional
bensinger
poughkeepsie
yengeese
zephram
thaddeus
golitsyn
shrapnel
stearns
myriad
abyss
prerogative
fromberge
budington
longfellow
swollen
phoebe
paraiso
schofield
termites
magnesium
transparent
greenpeace
philharmonic
mcconnell
riedenschneider
3jane
51
77
73
700
aver
ary
ache
acker
aaaaaaaaa
cp
cen
cakes
coded
dl
dup
doming
eck
eee
egot
ft
fath
fives
fisk
fidelity
gage
gents
gower
gingham
hq
hort
hoth
holog
homb
houn
haste
ic
igu
jank
jib
japs
kut
kink
kettle
litt
loma
lapsed
lissen
laloo
mound
muth
mitz
nou
nib
nano
nifty
oat
ogg
ps
pia
punt
rie
ruck
rah
rift
ritz
ruses
sard
sno
sark
sgt
tir
tate
tuss
tiki
vere
vant
viny
vizz
vested
wol
wards
yow
yore
yanks
zod
zipp
zeal
zeus
zalt
##aways
##iard
##iks
##nant
##num
##nation
##cam
##cape
##cats
##konn
##riss
##rope
##rational
##dies
##last
##lett
##gies
##pil
##pity
##pire
##pings
##pike
##mom
##mies
##making
##moth
##mination
##bul
##bound
##bour
##bug
##banks
##jee
##fir
##fig
##furt
##with
##western
##zes
##zip
##zia
##zilla
##40
##íll
##erity
##athing
##atta
##atoga
##onne
##onov
##anide
tole
##oration
##enny
whar
whippin
anarch
ites
itís
##isi
##otle
##etric
##itime
##itives
##omo
##ompress
inland
inquis
##vell
##uter
andre
beak
reapp
wept
mek
meld
mega
hagen
hazel
doork
doped
dopey
##usov
##ido
##idy
##idable
gopher
isley
shite
shiver
shylock
##alies
##alism
##imeters
stung
stokes
stunning
liv
licks
libel
##iculate
nova
##adt
##addle
myr
##irting
##illers
canfield
canoe
##ooly
##alling
sos
sopr
abused
##teria
outd
outra
asth
##stant
##stage
gots
frig
frying
fraction
frisco
fringe
chol
upped
uppity
trink
trud
trigg
sums
howling
##iem
##andez
##acked
dex
alum
##ivel
everest
everlast
##arted
orton
sacha
sauna
##igern
manly
manfred
loco
tellers
##ifred
plough
plugs
usc
uss
users
##istible
##alkin
##osy
seam
seals
##ulence
##ulates
##ulative
exting
exert
##olving
arise
arlet
##abs
##abil
brake
brunch
backl
##obes
speng
spokes
##nac
offland
carving
carjack
dross
agn
clone
fuckhead
envious
needless
workout
happend
overhead
betel
unatt
unmark
unworthy
##eryl
mooney
blad
blokes
##oyo
intake
intro
##berger
marce
maritime
##elt
##elaces
underhill
undermine
wright
godf
godzilla
loveless
gris
groves
hellhole
roar
rolex
rooted
roaring
firms
imf
impe
helpin
jog
##uez
remed
remington
crust
crotch
cranes
##tails
leaky
thru
throttle
elton
elois
eluded
kiddie
##pern
swam
swapped
biggie
##ptions
##ptuous
smut
girlish
adver
adap
hover
realism
monuments
##acies
##acola
acorn
flack
floss
flirting
missin
playback
##cio
phooey
##oggin
##ondo
disast
diseng
hippy
##anking
showtime
##nyman
##sheet
headmaster
moran
morale
resists
interse
interru
##ivion
para
parl
insolence
proctor
scher
schooly
pretzel
bois
slink
slaps
roomful
recomb
cheery
charade
chariot
append
turnpike
commiss
commence
fourteenth
##hnnn
glib
glenda
glutton
politely
fined
financed
attrib
telem
payoffs
daffy
desec
harlan
harrim
harcourt
harkonn
sitcom
womanly
paved
barter
barman
barbat
jackpot
##ancies
##ultz
fewer
caper
capabilities
capulet
seniors
wonderfully
metab
shoelaces
prescribe
beaver
sleepwalk
standby
edvard
dolly
thirties
relating
relays
relocated
relativity
figment
christoph
decompress
giang
giov
interestin
##sworth
hopeful
coppers
lawman
skipping
movements
apache
obregon
bedside
##ugnant
earring
humph
explodes
##nova
indicated
indeter
confeder
frankfurt
##azin
##azar
dreamin
sender
airlift
deli
delaw
lighted
milt
blackout
bloodstream
instability
sidelines
discarded
##necks
incoming
sorting
learner
retic
lieu
benign
##ertation
forgave
collision
##ucon
sexist
whitefoot
snor
numbered
salazar
papal
burbank
fuller
budge
calriss
regent
droppings
sweets
diedre
petra
windthorne
##attler
legions
curator
hangar
samoan
memoir
proportions
testoster
testicular
balled
ballard
balloons
uncanny
transyl
horribly
sellin
distaste
lesser
meditate
catchin
foolproof
keb
lockdown
completing
frees
tybal
psychosis
psychotherapy
squared
brained
felton
posing
merlot
merrill
kisser
doub
fairlane
fairvale
fairfax
fairbanks
botherin
##ocris
##ounge
repugnant
quickie
supernova
earthy
danvers
stepmom
sticker
##zzled
costly
pressuring
laughlin
rocking
considerations
misle
misguided
treach
devour
cryo
roselli
commanders
illogical
garg
garter
garments
smelly
irrational
cabbage
divisions
upsets
enjoyment
tickled
brawl
damien
sidetrack
futile
busts
duly
relaxation
sherlock
formica
formidable
compute
detector
detectors
lowe
communism
bottled
pissant
boxer
boxers
unclefucka
armstrong
englishman
cardiff
cardinal
halls
boarded
oppose
opposition
opposing
opponent
romari
##iterate
shoplift
germ
verified
veridian
impressions
acceptance
puget
settin
southglen
casts
modesty
heroine
aviator
heavenly
contacting
wildman
gardens
continually
amaze
argued
pardner
dependent
##bius
antar
antib
credits
earliest
quarry
##laughter
##hammer
hyde
pinea
mclu
potent
potentially
potaters
tapert
techno
sleight
skinner
clarissa
cameraman
autumn
kenya
##uitous
##uffy
guarding
piled
moonan
admiration
dorsey
northwest
viewer
viewing
viewers
melting
balint
nurt
professionally
portray
buzzer
crews
##parable
jani
saratoga
reprogram
succumb
swimmer
brownie
harmful
stockp
lyrics
##reads
bellmoth
berger
deserts
pathologist
titus
grader
gradually
rapist
sightings
lucret
lucrative
santino
urine
identifies
bonjour
rosy
provoke
provides
provisions
provoking
provoked
volatile
##fields
satisfactory
shroud
interviewing
touring
venison
boogie
statute
whiskers
ratio
mailman
fanelli
auntie
villains
cypher
cyanide
mccl
galloping
exec
hawthorne
chopsticks
sinister
meatballs
loudmouth
bumble
baer
rowdy
puny
commissioned
jerked
springwood
##genstein
chaplin
separation
mortier
mortality
##boni
desperation
primal
janeiro
napal
peeking
##monary
florin
fabian
pianos
155
piran
piracy
disposed
pilletti
dimes
dimple
taber
hypocris
halpern
nineties
photographed
renov
bangin
thorpey
passionately
chernob
epile
padding
rescind
siegf
ducking
boundary
deceiving
deceived
novelist
challenger
bungh
bartending
liberated
educational
decked
pitches
regarded
escaping
widely
explanations
impressionable
bailing
adjacent
borderline
osc
mumble
nathanael
flattery
serials
purser
blessings
dissertation
drummer
apron
virtual
virtucon
intentional
paranormal
chucky
bargained
gibbons
responded
doughnuts
stiffs
robbie
beefy
cobra
omar
savvy
carpentry
nih
rebu
reborn
hustling
kinship
tattler
tattagl
mechanics
lifetimes
alienate
schemes
salvador
bargaining
##veston
lecturing
norther
railroads
legends
patrols
documented
documentation
tribes
tribal
tribute
nikolas
rugrats
frequencies
wrestled
colonists
structural
landscape
vintage
##baum
valentino
homesick
dialed
patrizia
summons
fogg
tolerant
coordinate
bitterness
neuro
237
essay
superiority
loner
stirring
butchers
helicopters
intellectually
anchors
measles
outlook
outlaws
trippin
gagging
writin
writings
deliberate
##bags
shithole
skillful
municip
reflected
reinstate
reinstated
interrogate
conveniently
##oppable
brushes
obstacle
1985
1980
gazette
nuthouse
##nowitz
##whati
requirements
pencils
guinness
granite
egos
tangiers
sumbitch
observatory
pacifica
bacteria
reassuring
reassignment
consumption
whitew
scalped
coupons
riddles
goodspeed
##criptions
baptism
molested
airplanes
corridors
narcissist
hammering
gullible
polyg
1993
predictable
fiends
gaigern
zepp
exploration
australian
refrigerated
unstoppable
aaaa
coughing
lingo
manipulate
capitan
innocents
constitutional
diagnost
tibetan
eliminated
1945
disgraceful
irresistible
ponds
pancreas
bribes
unearth
columbus
dimensional
stimulate
presumptuous
anesthesia
flushed
jeopardy
irritable
dominant
ulcers
ratted
##dorf
emerge
awaits
awaiting
impersonating
vengeful
motorcycles
lumps
theoretical
pharmacy
glowing
spineless
handcuffed
prejudiced
colombian
distribut
seminars
maneuvering
baines
munchkin
allegations
downloaded
disclosure
hazardous
hedges
stitches
clams
deserter
artificially
welshman
estimated
fennyman
obtained
squirrel
dwarfs
olympics
cushion
pensacola
##ranean
muskets
squawk
tinkering
manslaughter
undertaken
consistent
trespassing
inserted
snotty
rupture
persistent
hitchhike
celest
sterling
aristotle
mayflowers
bubbles
cheerleading
microscope
vanderhof
meyerling
regretted
fundamentally
tranquilizers
crocodiles
iím
oberfeld
reptiles
quintus
intestines
mascot
bleachers
##ebrae
oeuvre
moebius
oblivion
deterrent
norrington
trilithium
grieving
dissection
intervention
espion
toxin
grifter
grifters
invalid
christsake
annihilation
alexandria
acheson
fontain
gelatin
sledgehammer
projectionist
astronaut
mosquit
echoes
pixilated
anomalies
staggering
carcin
enrolled
cognac
ernest
masquerade
dumpling
dictatorship
dmv
##lichman
gettys
sluggish
metallic
concorde
filmmaker
extradition
prophet
prodigy
taxpayer
deductible
bawling
elderly
vandalism
saucer
adequate
obituary
petrified
aggravation
pavel
titties
yvonne
arbitr
envelopes
grouchy
disadvantage
insulin
seemingly
repellent
congregation
melodramatic
mccluskey
bureaucratic
lobotomy
increasingly
bazaar
cullum
mescaline
oveur
szpil
demeaning
orthoped
contingency
scourge
frivolous
typhoid
psychoanaly
multiplied
nostalgia
clobbered
aphrod
jethro
pseudo
cheswick
calamity
stockbroker
embezzlement
uncontrollable
incarceration
aquarium
tutsi
vortex
zinnowitz
##abagina
beseech
kenilworth
cobblepot
rawlston
pestilence
aryan
ackerman
houngan
jankis
kutusov
laloosh
mutha
mitzv
rieper
ruckus
rusesabagina
vinyl
vizzini
zaltar
doorknob
outraged
asthma
cholera
trudell
extingu
arletta
spengler
unmarked
impecc
interruption
schoolyard
desecration
harriman
barbatus
giovann
indeterminate
delaware
calrissian
memoirs
testosterone
transylv
distasteful
tybalt
sidetracked
mcluhan
hypocrisy
siegfried
tattaglia
municipal
szpilman
62
61
6th
71
8th
98
93
ainge
bil
baking
bleep
bama
bender
bids
cory
cache
cici
dif
dots
dipper
dya
dinky
douche
ee
eared
eww
eerie
ejac
eisen
fus
fust
fie
fend
feral
furs
fuh
gour
gash
gai
gizzard
hic
hess
hond
hires
hinting
icar
jad
jee
jiff
jama
jeeee
jolt
kw
kan
ked
kang
kual
koko
lakes
lug
lared
lins
laps
latt
lutz
mik
mmmer
nath
nines
nina
ogl
pc
pher
pff
piet
pager
piers
puls
pomer
rar
sr
souse
sne
sik
sattler
tash
tug
tcha
tummy
tumbling
uri
uther
vance
vette
wre
wary
woll
woe
yee
zat
zed
zere
zones
zipper
##iates
##nals
##cow
##comb
##cano
##coran
##hmm
##eve
##easant
##kor
##rh
##rock
##riment
##rlichman
##oad
##dens
##some
##scan
##lower
##lety
##uire
##gow
##gown
##groom
##guff
##gosa
##tie
##tical
##tors
##teacher
##pill
##peak
##mor
##mell
##mie
##mand
##morda
##via
##ben
##bay
##build
##jorn
##jama
##fun
##wad
##wave
##wife
##zac
##znick
##2p
##él
##¹s
thurman
##erp
##inette
##atri
##onin
##onge
##anim
toen
toff
toscan
##inges
##orant
##oros
##enk
##enie
##enov
##enzie
whup
##escent
anach
##edus
##iso
##isma
##eties
##itic
##asco
inqu
inward
ingr
##recht
hein
hemm
hectic
bew
beets
reop
reina
mement
meek
mecca
halt
hailing
dood
dogg
doof
dogged
dovey
dobbs
##usal
##usea
##idav
##ldwell
goosed
goetz
shur
shea
shaked
shittin
shifting
##alanche
forem
foreman
forrest
##imps
##imitar
knif
knuckle
stee
stap
stale
stench
stanton
notations
##seat
##icz
##icillin
nog
nosy
nobel
##adier
##iration
##chin
##chal
##chem
##chure
##champ
##changed
##antial
##entless
##illas
cang
canda
##urus
##urize
##urities
neon
neal
sodom
abol
abdom
alles
didja
##odel
output
asc
prin
pronto
##strap
##nde
##ndest
fris
chut
chore
chard
chong
chores
chums
chester
upstart
trio
##opes
atone
atley
suga
##essing
##esses
vega
veidt
##ppa
deci
dehy
deetz
deutch
righty
alps
alignment
##ivey
##arton
yesil
orlac
mang
manning
manne
ohmy
loew
loins
lolly
plight
plac
plugged
timothy
##istine
##istrate
##uling
##ulas
##ulent
##ulatory
arsen
willis
comet
combed
comoros
##endously
sommer
##abo
##abled
bret
briar
backseat
##ourin
##oured
spew
spik
spaces
sparing
spasm
sponge
spivey
##naw
conch
conned
conund
everythin
twill
twinky
offa
offending
carvel
carroll
amo
amos
ample
amph
amped
amster
ammon
droo
##apore
clint
clipp
clerg
cledus
leop
enrich
workplace
##beats
##rio
##rip
##rians
pec
pecan
pember
downer
afta
afire
bettes
quo
quir
quiche
quinn
byron
moff
moans
moons
moines
##acell
blub
blanc
blund
blizzard
haskins
##agin
##agus
##bernation
buggin
marr
maru
marj
marian
marital
marvell
scor
scimitar
cohen
##issible
huddle
unders
underage
wrigg
wrinkle
thanked
grants
gropp
trycht
##bleau
nightgown
findley
newsh
joins
jokin
jokers
macc
##plate
crist
crushing
leah
leav
##izable
kindred
##vester
swoon
swung
partridge
smug
adores
adelle
##ossa
hokey
hogs
realization
perished
lava
launce
monks
assy
assurances
##aca
acre
acula
acrost
flap
flakes
flips
flipper
flaming
supporter
##ciere
pham
phreak
phosph
pheasant
##ogies
##ogues
runway
disple
disqual
hiv
hibernation
##quiat
showin
stuart
tomah
motherly
strained
stroking
##anson
sermon
##sha
##show
headlights
morose
##iah
resil
reside
interact
interstate
crapper
##ockers
parap
parag
parish
worldly
insurre
##portant
##mmetry
hardapple
boar
slope
slices
slashed
slacks
reclaim
##itched
##angel
chees
charities
appropri
comme
commute
sonic
##uben
##neran
babar
poland
polack
sixteenth
plannin
ahhhh
cleo
fines
finelli
finneran
preview
dai
dah
dau
daik
##xton
compost
compelled
compieg
descend
designing
harness
sites
tenure
surreal
fares
farrah
pav
cuter
jacko
schoolteacher
##ulture
##orsaken
senile
opener
eds
edwin
rested
restoring
reli
relentless
dieu
dares
darrow
gunn
gunshots
highlands
hotshot
cah
caldwell
skater
hitters
faceless
apoc
complained
bulldog
bedsoe
grapes
earnings
humm
humour
inde
indies
index
induced
indicating
confuses
##azine
infur
imports
consulate
jeb
jeze
syd
syria
symmetry
faction
##ressed
airfield
delux
engaging
speakin
blacklist
instig
corcoran
sideways
truthful
##aneous
firewood
madly
madmen
madrig
stein
incend
incidents
inclination
expectin
expectation
##appa
leary
##ensions
retract
retained
##inski
benev
benito
watering
##okie
whitehall
messes
messina
snore
snickers
defenses
salome
fullest
streetfighter
calming
granddaughter
countryside
winters
strait
singapore
##atted
subter
submers
maguire
magistrate
##atories
redstone
redfoot
erasing
filet
filmore
filming
dearly
natasha
buildin
extras
refers
midwest
testament
satire
greens
uncond
mistrust
dickerson
dickweed
medall
bucky
tillman
yorkers
poorer
poorly
specialists
entity
informal
oww
tyson
imagery
psyche
maryland
poppa
posh
hospitable
wallow
pasture
normand
nickels
operatives
vien
jerking
jeriko
##ractive
learnin
##iewicz
superc
sunfl
blowjob
terrify
penicillin
floater
cannibal
##brid
davy
palaces
palantine
rockef
treatments
viral
respecting
basquiat
misinform
clockwork
##alding
machete
honorary
devote
devoid
casp
cashing
affidav
conniving
##meal
ehrlichman
solves
irrig
cabo
cabs
hopped
##uese
demer
bora
##mington
##borg
##boros
##ricular
ticks
brazen
bathed
##grown
knockin
denning
drunks
##nese
footprint
turban
publication
##versial
dukes
duquette
sandmen
suckered
layers
dunois
hurrying
torres
##ovico
unclear
##boats
bombers
bombshell
acroph
woodwork
vanish
locations
carlson
violates
violently
romirez
colleges
splattered
peacefully
ceases
homage
accountants
travell
dumbshit
stationery
verger
witnessing
philanthrop
evils
puking
miriam
congen
directory
threatens
avalanche
macguff
equiv
failures
##anaugh
elections
bowery
physi
suffice
seale
seahaven
addresses
extrapol
hooking
gaspar
rounded
cockeyed
percentages
raincheck
raincoat
examiner
hym
brochure
pinhead
expel
expired
expiration
lieutenants
washout
neighborly
auton
kenworth
##ographs
audacity
agreeing
taxic
tarry
pilar
henri
organisms
##ronism
hosting
panics
moonby
lamotta
jams
proudfoot
ports
##rops
langston
janie
repro
##estyles
issuing
climbs
jenzen
creditors
jeannie
supported
shocks
commonly
stockholders
lyla
bellies
laurant
laurence
excellence
beret
creeping
lasagne
projector
switchboard
raptors
sighted
##iators
randolph
richardson
sporty
urn
bonnie
bonham
rosalie
combust
province
severin
volta
volcano
angrier
angola
angstrom
freshen
introducing
nailing
muther
mutation
apparatus
speechless
diaper
diapers
ethnic
gamblers
rabin
rabbi
repeats
sourpuss
10th
designer
engineers
reactors
bottoms
develops
cooperative
jacu
snowman
sinner
110
corrado
susanville
expressed
punchline
tipsy
##afson
toothed
nicola
tallow
naah
nausea
accessible
chemists
separates
buffoon
buffoons
wireless
targeted
lapse
188
carpath
vampira
wetter
surfers
rushes
nutcase
psychiatry
albatr
##ijin
analogy
unforg
varlac
strangler
stoltz
elevate
persian
negotiated
lifestyles
faber
dusting
dusted
rodents
rodgers
rodrig
competing
sweatin
injuns
sedate
sedation
sedatives
seductive
pillows
hollering
schedules
dimitri
dimensions
tablet
experimented
shielded
spoiling
renquist
##iacs
geniuses
thorgan
embolism
journalists
circumstantial
cherished
horrid
horrors
knighted
recovering
pierced
inventor
epic
pads
padlock
##iveness
temperament
temperatures
gatekeeper
nunheim
incidental
shelves
##aaaaa
faggots
25th
hayse
##gaard
benefici
##oscope
flashlights
qualifies
raging
appliances
barbarian
tossing
demonstr
theaters
stretcher
stretching
aimed
katie
lori
lorenson
lunatics
launcher
nationals
determination
visionary
crushes
capitalist
utility
exchanged
producers
dilig
dilithium
hesitated
raccoon
ultras
triggered
drumgo
wednesdays
toyota
scanlon
140
rotation
reviewing
bridegroom
responds
occupations
sprung
proceedings
seniority
voluntarily
215
rebound
alteration
parading
suzanne
neighbour
independently
sabote
industries
bulgar
dodgers
lectured
mckendrick
astr
preventing
hoods
thicker
ilene
spectre
surrounding
surroundings
stressful
premises
yessss
##carora
atmospheric
subspace
subscriptions
hutch
waltzing
stripes
greely
humped
humpty
youthful
whispered
analyzing
diller
vinnie
irishman
nanotechn
##ourable
consciously
1963
spinach
##aphrod
patriots
vigil
hahah
##semble
gillian
dictation
dictated
dictating
dictates
hammered
memorized
wanderer
integrated
architects
orchard
steamroller
lewd
maintained
persuaded
siwash
measured
branches
splendidly
stunts
grocer
helmets
coronation
niche
commentary
strawberries
blackmailer
distractions
voyeur
horizons
hemat
decoration
locksmith
kipling
caroline
cavanaugh
convictions
assemble
homosexuals
granville
withdrawn
selves
selznick
historic
rehearsing
clemens
exclusively
diplomacy
jellybean
voucher
##iiii
flooding
riddled
accomplishment
ferguson
nitwit
heaviest
shaping
aspirated
sponsored
scholars
1939
1938
permits
commodore
expanded
scramble
disguises
caterpill
hammock
gulliver
folds
1997
fatalities
achievements
erect
sisco
socked
frigging
faithfulness
withdrawal
manufacturing
koros
enquiries
indulging
stooling
stoolie
brigman
overrun
ivory
convergence
diagnose
dashboard
jasmine
rudder
sylvan
chiang
overdose
broomstick
proteus
blazing
addictive
superstar
anticipation
thermometer
crunching
presumption
1952
hydro
cuffs
spooning
burgess
condemn
414
mourn
veterans
tropic
slacking
kilometer
encountered
subpoenaed
extermin
resurrect
schizo
botan
botched
brasi
resorts
optimism
gems
gemini
disrupted
graffiti
lizardo
##danov
revels
worshipping
worshippers
inflation
vincenzo
tampered
accelerated
munchkins
brockovich
hockley
hockney
wheatley
unloading
babysit
bullshittin
estimating
anesthesiologist
dreyer
deployed
grooming
executioner
misunderstandings
masturbate
pimenov
hermanidad
intercepted
glamorous
absorbed
squatting
demolished
hollerin
ultimat
leviathan
flaemmchen
bosnia
tinker
flunked
beauchamp
consistency
revolt
prosperous
insecurity
rendered
transplants
##zzzzzzzz
wartime
yoga
forensic
steroids
defective
spacious
strickland
subtlety
1922
pyramids
gustafson
jocko
karajan
fundamental
iíll
##speak
toller
chigro
moisture
transformed
squeezing
supervise
reservoirs
attachments
recollection
guerr
grims
adventur
turbine
reproduce
administrative
lazarro
tuscarora
vendetta
orbital
arrakis
cranberry
dissect
contempor
precedent
inducement
illuminate
unpacked
conquests
plymouth
rapport
sighs
plunged
bromden
scorpion
hijacked
proximity
reluctant
christsakes
dueling
alexandretta
dentonvale
reconciled
mckinney
arabic
arabia
pushers
jellicle
pingala
rouge
sauciere
amarillo
amargosa
unimportant
residue
imaginable
imaginative
gimmick
astronauts
mosquito
yuri
noodle
noodles
lifeforms
recyc
delicately
positronic
moderate
moderately
portugal
portuguese
scarcely
bootlegger
rehabilitation
jugular
rielly
ssssh
nosed
chubby
mannheim
spunky
hoffman
decreed
affliction
quarreling
juggling
ecstasy
kooky
pompous
zhdanov
hexaval
prudent
troughed
moorings
flintstone
configuration
fatigued
acquisition
pacifism
hulk
nastiness
nylons
inaugural
ligourin
spouting
intolerable
perjury
indiscreet
repetition
archeological
matinee
obstructing
wannabes
aloha
brodsky
splinters
amputated
overpowering
marlboros
lacerations
phrases
controversial
geometry
antigua
tournament
varieties
mathews
synagogue
entrepreneur
bavmorda
antoinette
prolong
overthrow
coffey
confounded
delinquent
superficial
romantically
embryos
unaccount
skeletons
advertisement
eavesdropping
pommeroy
gospel
forfeit
fratern
plunging
brussel
cloverleaf
unruly
barbossa
decisive
subversive
transponder
garcetti
cardiologist
receptacle
urgently
laundromat
mongoloid
unbearable
uninvited
domingo
egotistical
hothead
tussle
frigid
triggers
aluminum
everlasting
betelge
unattractive
godforsaken
adverse
gluttony
doubting
lucretia
nihil
espionage
gettysburg
impeccable
giovanni
fuhrer
gaiijin
hondur
icarus
kedward
kuala
laredo
mmmerrick
wollsten
toenails
anachronism
shakedown
foremost
candaules
deutchland
mannequin
ohmygod
conundrum
amsterdam
pemberton
groppi
trychtich
launcelot
insurrection
compiegne
jezebel
deluxe
madrigal
misinformed
gasparilla
albatross
stoltzfus
rodriguez
beneficiary
ultrasound
nanotechnology
hexavalent
09
1l
52
58
67
732
86
92
ao
avery
b5
bis
bors
bism
bikes
bicker
cq
cody
coss
dn
dives
dipped
dago
dipping
dagger
eta
egan
fatter
fates
fals
fusion
fencing
gould
gome
gah
gander
hanc
hano
hinkle
icon
ipo
jf
jal
jak
jah
jigg
jays
jizz
jango
kad
kru
korda
kwan
kesher
ler
lop
lank
lars
lup
lending
loops
lenses
mak
mitt
mert
mesh
mizz
minks
ng
nir
naps
nether
nung
nva
nibble
nbc
oy
oint
oily
oss
ollie
pout
pand
pum
panda
pagan
rer
rant
rook
rama
rina
rips
roos
rko
riley
sow
sall
sion
sade
siam
sacks
sooo
t4
tou
tle
tard
tary
tapp
tether
tann
taker
tuffy
vr
vets
vale
wamp
wets
wield
wien
wockers
xander
yi
yew
yny
zy
zil
zord
zapped
zoom
zozo
zorin
##aic
##cad
##cation
##citation
##hr
##hay
##hic
##hive
##hab
##hose
##hower
##hael
##hurst
##eid
##east
##rower
##rows
##rift
##rances
##rising
##des
##dly
##drew
##dler
##lam
##lind
##lude
##year
##uus
##uch
##uza
##uquer
##uendo
##gma
##taking
##pf
##pick
##pies
##pins
##mat
##mis
##mph
##mings
##missible
##bet
##buck
##bear
##bull
##bump
##beth
##butt
##bolt
##fi
##fy
##fu
##fru
##wins
##wana
##world
##warming
##washer
##zk
##zu
##zger
##74
##35
thine
##oufl
youíre
##erta
##erary
##inch
##iners
##inians
##atops
##once
##anza
toled
topless
##oric
##orra
##orice
##orial
##orating
whir
##eson
anon
anew
anec
aneur
itches
itching
##arama
##isan
##isse
##isbury
##otected
##etown
##itory
##itious
##itars
##omagn
##asi
##asse
##asaki
inert
inef
inga
inability
innings
inigo
##veau
##rect
##reides
##ayer
heil
hebbing
hefty
reiss
reels
receptive
reuben
##erel
##ereens
whatch
whatty
##lege
##leader
dos
doj
dodd
dooms
doggy
##usch
##uscitation
##ldar
gover
goog
goats
gobs
sht
shakin
##alc
donated
knob
stre
stoop
stacks
lice
knowwhati
##icol
##icting
noah
##adre
washer
##irical
##chinn
##amy
##amb
##amation
##aments
##amamie
##antics
##eeb
##eemed
canst
withdrew
##urdy
##urring
neander
neuv
neilsen
##ceeds
##ione
soar
soaking
soles
soggy
abomination
justine
allo
allus
didya
##odorant
outing
##inkillers
##ctica
asap
asleen
asgaard
pris
priors
##sta
##stan
##star
##stam
##hers
fra
fres
frick
chit
chak
chag
chock
choked
shepp
upstanding
upcoming
uprising
tric
trance
trix
trac
trades
himalay
atf
atkins
atreides
suited
suicides
howls
##ieger
##iega
veal
##pph
##acking
deuts
deodorant
##unapt
somepin
herod
seeker
alv
alai
nowheres
##rys
looka
##arts
orion
orte
salem
manila
ohm
lobo
loiter
plow
plots
plotted
timed
##rable
##raced
##osi
##osion
##osia
##osals
seating
seized
##ulu
guiz
guitars
##oled
##amel
arlene
arousing
aroused
##venous
willies
willfully
wherefore
##abor
##abod
britch
brits
brats
brushing
brenna
timeless
backer
backbone
backtrack
##obable
##obiles
##earse
sposed
spins
sphin
spiel
spiders
sperit
didnít
##nage
##nacle
conked
##umet
talkative
hadden
twigs
offence
##lford
mayer
mayolia
carver
drought
droids
drains
drenched
takeover
agit
clan
clinging
fuckface
levene
okra
okum
enigma
workmen
##belt
##rious
pew
uni
unve
unified
unwell
unres
unchar
quiver
quilt
##emian
##emark
blouse
blimp
inta
muld
muley
mudd
##agi
##agna
##agli
##bercul
##berstam
buen
marqu
##thest
sci
scape
scoring
scutt
coons
coitus
huff
unde
undone
##reezing
wring
##ewa
godmother
##ffles
lovelier
lovemaking
##isha
belved
belts
beluga
grot
grig
grits
grilling
roz
rover
roeb
waved
newton
helper
jogging
intoxic
remedy
emory
embedded
mawr
##udd
##udad
criter
cranium
cruddy
##icho
##angled
pox
pointy
thrash
thrift
##irect
elms
elapsed
##izoot
kindest
probate
swh
swarm
swifty
##ptons
partake
smir
smoo
smog
smores
ada
adul
adrift
hocker
realised
realtor
pertain
laud
laced
homemade
mond
monty
monarchy
##aci
##acore
aced
flut
flum
flog
flippin
missp
startle
playful
playhouse
##cier
##cible
phu
phases
##ogl
##ogate
##ogne
##ogens
##orders
##ordial
guesses
deadwood
deadbeats
disd
dispar
disbel
disinform
faire
faulty
hier
##ulls
tomcats
tomorra
sermons
##shr
##shank
##shoot
headstone
mormon
reson
resides
resuscitation
interval
intercom
crave
##ivating
##ivities
pari
parcel
paratr
paroled
dads
insuff
##ports
sled
slither
slov
slinky
rooming
roommates
recuper
recurring
charco
charism
charmer
charnier
appalled
##dyne
##ctoral
##nero
hurling
hurray
##penny
babble
baboon
watchdog
##roke
glances
glued
glaring
sixes
breck
foe
foam
foibles
walkers
attire
teldar
payphone
dapper
invading
invari
compulsion
components
menstru
desirable
##which
surest
endearing
farrell
painkillers
holdings
bari
barley
barroom
barbers
barbed
barboni
jackin
capra
picky
openings
##ibals
##ibald
presby
exacting
doctored
eden
edited
relied
figaro
fiftieth
decomp
decanter
##pec
gunther
gunnel
gunfire
highways
highlights
hotwire
shutter
copped
caus
eva
evade
##aired
sked
skag
skys
##ceptible
possum
honky
honza
eighteenth
workingman
seti
apb
genie
gennero
##otti
##ostor
heartwarming
numa
gravest
wisht
wishful
##ahs
youngster
humbly
explored
indent
indign
indec
confine
hateful
troublemaker
inflict
infested
infidelity
dreamy
dreamers
consens
conspired
cologne
signify
airy
airtight
shootings
delays
hunhh
speakers
lightyear
milking
blackness
blackboard
blackouts
bloodhound
lateral
fireplace
maddy
madhouse
depraved
starliner
honeys
detained
detriment
discre
incorr
incont
learnt
retiar
pictured
liege
lieberman
freeing
waterford
newsre
geographical
collines
electoral
##olepsy
whitehouse
defines
defences
salisbury
burton
burma
budwe
calo
calms
calmed
calumet
patent
sentient
sentiments
grandk
grandest
winkel
winifred
secretive
concub
fallon
artful
articulate
stupidest
sweety
petrov
windex
curing
hangers
##atorium
redmond
reducing
redundant
samo
memos
musn
musc
cleanup
louie
raf
raves
refine
refined
refusal
profaci
gladstone
impart
imposter
impostor
straightforward
##ruci
momentary
distances
distortion
companions
dickin
dicking
medics
meditation
bitchin
catchy
kegs
locket
specials
entourage
##awa
##awww
keyhole
keymaster
squirm
fasten
popeye
throwers
felicity
merde
mercil
merrin
mouthpiece
nicked
operas
jerky
jericho
##ocado
martians
repaid
condos
quickest
counters
supernum
earthly
terrest
danube
michaud
disapprove
oughtn
##zzik
cannibals
clauses
smartass
davies
laughable
roadbl
respectfully
bagged
basin
basics
shortie
shortcut
tremo
##cedented
##gano
investing
investor
swears
garfun
growin
convoy
irth
cabell
divinity
oneself
##ethrower
bragg
knocks
goldwater
futures
weirdness
denise
publicist
duet
relaxes
sandwhich
taj
tavern
##inai
dungeon
trucking
truckers
lowlife
pissy
pissin
torched
##ovitch
##ovah
catatonic
jails
welch
silky
icepick
occult
cardigan
cardenas
hmmph
hmmmmmm
teammates
locating
selfless
circling
camille
cambod
camoufl
docile
romanoff
greenly
splatter
splits
stealth
homing
homicides
hometown
##uctions
frederic
connecting
travelled
tracker
trackers
verb
verbat
philby
requiem
puh
southp
southeast
heroics
cooks
presentation
avocado
macy
sanction
investigative
wildest
computerized
continuum
princes
departmental
##iesta
amazon
argyle
bowman
pushin
karate
furthest
pardons
extracur
rounding
cockamamie
oprah
royally
crev
fitzs
yells
rainbows
hyatt
spiral
comfortably
potion
##burse
juiced
collects
expos
washroom
tightly
tightrope
clarity
politic
existential
riverside
smoker
julien
guardians
taxation
thermo
dumpty
noriega
piles
ideally
henley
organa
groupie
crackhead
francais
moonshine
cooley
dored
dorota
northland
##boys
melinda
amazingly
blinding
lamagra
buttocks
jamilla
cupid
spotlight
##ungu
screamer
graceful
gracefully
crewed
crewman
janus
scarier
crowbar
virginal
sweated
sweats
bodell
techniques
conversion
willingly
##hearted
stocked
performer
feint
fezzik
emerges
smithereens
henryk
successor
pathways
ashton
gradski
famously
breathes
breathtaking
raphael
archives
archuh
archbishop
archangel
archibald
forecl
lucid
##iatrist
preferred
fleur
gala
licorice
victorious
hamper
hamunapt
hamptons
##enthal
bonkers
bonfire
##headed
spiritually
scrogged
scrounge
volition
volts
volvo
volupt
brandt
branded
employs
employers
mutilate
krieger
drags
diag
pocketful
gamb
rabid
kayo
bugsy
revive
revisions
imminent
citrine
designs
banal
banjo
weightless
brilliance
narrative
strengths
aunts
wilkie
snowboard
snowstorm
logs
sinners
squarefoot
surrend
surrogate
punitive
punchy
magnus
cornell
maturity
sneakers
unhook
mentions
tunes
springtime
chaplain
hillman
reckoned
lisca
primo
primordial
encore
encoded
faculty
bulletproof
freedonia
brilliantly
shapeley
stabs
surfboard
grownups
masked
buttered
albrecht
albuquer
albacore
kidnapper
##ija
unfreezing
snaps
tailored
improbable
entertainer
dumpt
recommending
1200
##ulele
dishwasher
competence
principals
sweaters
injunction
cultivate
ferment
voll
methane
firmly
dignified
dignify
sealant
halberstam
renoir
renounce
latent
latrine
optical
optics
seventies
##cloth
unsupp
unsatisfied
coastguard
hooey
sophistic
implication
friedmans
horrifying
knighthood
squads
progressive
congressmen
congresswoman
epizoot
assumptions
defendants
counselors
siege
humorous
institutions
despises
explosions
semantics
bunco
liberace
montcal
beaming
citizenship
tux
tubercul
##iaries
coincide
currents
escapade
gripping
mackerel
##oscoggin
flashback
flashbacks
cheerios
ouija
replay
replied
barbarians
teeny
shrinks
osaka
theatres
aimin
katmand
loren
ribbons
tubab
resisting
barnard
handsomely
peeled
versions
rehash
rehearse
troupe
##books
exercises
pico
lizzy
assassinate
foolishness
catsup
giga
lestercorp
dilated
foxy
foxhole
dissu
dissip
dissatisfied
boomer
drummed
rigid
rigfort
scanned
smoother
reconcile
fiasco
whistling
wormholes
methodical
lynne
reviewed
jetson
conceit
##ebag
robbin
gestures
buddhist
watery
##ompter
sprout
sprang
sprained
jennyhay
cobalt
settings
depositions
voluntary
carpenters
212
diggin
tattoos
tattagli
alterations
fluent
fluids
ozzy
##relles
crisp
oakie
oakwood
schematics
billionaire
shoreline
spillane
cukor
crystall
biologist
bulim
dodger
individuality
eternally
alleyway
comprende
snapshot
hinted
astute
hoodl
ilio
##ritis
tribuus
scraped
scraping
yesss
impertinent
tremble
colonization
beehive
schwimmer
detonated
detonator
binge
technicality
analytical
temptations
compromises
batted
nanook
pups
tranq
dramatically
valentin
dialing
sincerity
vigor
summit
yuk
stalked
streams
electrified
assaulted
nygma
viceroy
integration
harboring
catholicism
##writer
orchest
spiderman
essays
persuasive
exhausting
docking
goosebump
grams
##choly
repairman
nomad
nomination
rascal
skilled
coronary
coronado
initiating
selective
brutus
reflecting
exaggeration
hopelessly
bleedin
pilgrims
##covered
praises
obstruction
judgmental
tortures
winslow
assembled
resented
ahhhhhh
musicals
fantasize
dixon
klutz
softer
inspires
tangle
vibration
observant
##bowl
handyman
parental
reassigned
shredding
selwyn
bronfman
queasy
consuming
visualize
cosmetic
rehearsed
dismissing
ackland
##immons
bamboo
duroc
eagles
glenville
illusionists
hawaiian
fidget
linnea
nitro
trampled
tombstone
slamming
contentment
purchased
1970
1971
1977
1935
broadcasts
derelict
sodding
margarita
odette
odessa
weepy
brewer
starships
aracht
bianchinn
lamps
tucking
canadians
orphaned
eagerness
shuffling
anchorage
pendleton
tenderness
insectopia
nicholai
havoc
brigadier
waxwork
ridgeway
toothpicks
scrapes
crucifying
lesbos
ichiro
ichabod
macey
zackie
evolutionary
confronted
triumphant
cedars
##uuu
nevins
alibis
calculating
intrigue
intrigued
overwhelm
gorillas
ludovico
##broke
clipboard
advertise
superstitions
galaxies
cummings
##waves
stimulating
interpreted
presumably
othello
ambitions
encouragement
270
bienstock
cortina
cortez
reneg
maui
irritating
hasta
pulmonary
indoor
verdell
obscure
dwarves
flawed
installment
incomprehensible
lanterns
botany
lumpur
mtalkin
lilacs
dorms
##ihan
mayhew
unprotected
intuitive
polaroid
saddest
feminist
hypothetically
hypothesis
hypothalamus
sshh
revelations
solely
colombia
distribute
distribution
cyclone
contractors
hormonal
satchel
unloaded
deserving
estimates
synthes
kryptonite
coyote
koreans
shabazz
grovel
prevail
squeal
loathsome
squawking
cowgirl
hyperdr
gleez
##drates
grubbel
funnier
paws
philosophers
bikers
heineken
fracture
fractured
cyberdyne
keri
##alleled
newcomers
untrue
bankruptcy
apprehensive
cheerleader
cheerleaders
corset
kittens
##rillas
crissake
appease
appeals
obedient
indigestion
regrettable
participant
eyelashes
aerop
##breaker
##breeding
##101
reptilian
sagitt
seasick
blooming
belgium
follett
truthsayer
attachment
78s
olaf
pestering
pioneers
dementia
guerrillas
flamethrower
hippies
infiltration
unprecedented
administered
lullaby
trivia
arounna
dispensary
disobeyed
grapevine
incinerator
immensely
merchandising
nimbus
ukulele
vasquez
vindictive
spawn
##aglio
crammed
counseling
tabloid
raggedy
applicants
imperfection
battalions
craftsman
debriefed
krempe
mingle
oasisburg
sauer
wombosi
exclusion
skanky
incorrect
mammal
mammoth
impeachment
rolfe
anomaly
soothe
outbursts
chalice
brentwood
enlarger
overstreet
unnerstand
griffin
instructors
masquerading
empathy
puncture
dumplings
pantyhose
intimidated
dulaney
vertebrae
yokel
degrading
hoffa
consolation
afflicted
quarreled
juggle
corpuscles
accompanied
accompanying
hitchhiking
xk101
chirop
chippewa
uplink
depleted
delegation
prohibited
dahlberg
submitting
melancholy
lubric
paternity
zeros
gooks
semitic
unquote
swarthout
stubbed
procession
##hnnna
indifferent
subdued
miniaturized
ciudad
dialect
dibs
jitters
lashes
moocher
nabbed
tulsa
inadmissible
androscoggin
stardust
overestimate
intravenous
undiscovered
undetected
airstrip
eyebrows
mortgages
renowned
unscrew
eyewitnesses
braided
tampon
xanax
##craper
##picuous
liberties
canisters
upgrade
unparalleled
glaucus
premonition
harriet
endowment
jehovah
eskimo
judaism
feldman
deteriorate
dyslexic
pessimistic
siena
yori
##lllp
outnumbered
lollipop
leibel
buggered
roxy
flannel
bohemian
endeavor
proprietor
teleprompter
lifesaver
deactivate
ceremonies
cpu
hologram
nouveau
piazza
outdone
dexter
manfredi
backlog
drossos
marcello
grisly
disastrous
disengage
metabolism
treacherous
antarctica
pineapple
reprogrammed
stockpile
napalm
chernobyl
oscars
reinstatement
polygraph
unearthed
celeste
mitzvah
transylvania
eisenhower
jiffy
pomeranian
memento
doofus
shurrup
chutney
decibels
dehyd
blubbering
blundering
marvellous
tomahawk
paragraph
dahmer
apocaly
benevolent
subterranean
unconditional
viennese
rockefeller
acrophobia
voltaire
jacuzzi
exterminator
guerrilla
betelgeuse
honduras
b58
gomez
hancock
hanoi
jfk
jalopy
kaddish
kruger
ointment
roosters
tourelles
wampum
ynyr
##fruit
toledo
anecd
ineffect
whattya
doomsday
neanderth
neuvich
sheppard
himalayas
ortega
loitering
sphinx
scapego
belvedere
criteria
disbelief
disinformation
insufficient
charcoal
charismatic
invariably
presbyter
skyscraper
consensus
retiarius
budweiser
merciless
supernumerary
roadblocks
tremoille
garfunkel
cambodia
verbatim
extracurricular
fitzsimmons
hamunaptra
albuquerque
unsupported
epizootics
montcalm
tuberculosis
katmandu
jennyhaydn
tattaglias
bianchinni
hyperdrive
05
01
08
06
03
1st
49
8a
aur
aort
avers
auf
bess
bong
bide
boney
baz
bbc
cn
cus
cag
caged
dard
dien
eile
eps
eeg
egel
foo
fitt
fens
fda
faker
fizz
fudge
fhl
fudges
gou
gess
gort
giz
giff
giv
gors
gins
gacy
gittin
gassed
hight
hoy
hula
heter
iz
iun
izz
jeet
jav
jai
jangle
jigs
kell
kest
kol
kild
korr
kipp
kov
kilt
kune
kham
kitz
kiber
koe
kader
kryl
lith
lore
luce
lbs
laker
lithium
lulu
mow
mink
mia
mower
mounds
mended
mashed
mkay
nt
nome
nach
nird
nuff
nya
nuh
nnn
ock
ood
oars
oost
omen
ode
overe
px
pon
pell
puck
pong
pied
pott
pits
pda
potted
pimm
ponson
p2p
ruse
rite
rital
rural
sq
sfor
sizes
tm
tj
tet
tnt
toup
tung
tippi
tazin
u2
vd
vs
vie
vary
vanna
vices
ville
vries
vending
wi
wou
wess
wif
wised
wakin
yus
yad
yero
zool
zorn
zorg
zlot
zippers
ça
##aise
##iy
##iree
##ielle
##cot
##cci
##cuts
##coms
##cotch
##hor
##hler
##hoff
##hara
##eck
##elda
##kol
##rn
##rout
##rive
##rice
##rud
##rade
##rition
##rino
##rador
##ranco
##oil
##deg
##som
##sand
##lest
##lore
##lord
##gam
##gook
##grew
##gones
##ti
##tr
##tre
##tag
##times
##pd
##pat
##pal
##phing
##pence
##pock
##pole
##mic
##vins
##bh
##bide
##bite
##bomb
##jira
##fet
##fest
##faced
##fetched
##war
##watch
##wling
##witz
##wered
##weds
##wheres
##zzy
##zio
##xcow
##98
##532
##21
##27
##16
##ée
##39
##30
thal
thumper
##oudy
##erting
##eriz
##inant
##inium
##incible
##atz
##atar
##atis
##atoo
##atary
##anos
##anate
##anum
##anbul
tory
##ingle
##ingway
##ingue
##enade
##enium
##enshaw
##enbaum
whipping
whorf
anac
itll
##arkey
##arius
##arron
##isa
##isal
##otus
##itian
##itism
##itute
##omist
##omatter
##asian
##asible
inac
inbred
inbreeding
##reen
##reci
##regn
##uti
##uttle
anders
hea
heed
heinous
beards
beeeee
beggin
befall
reim
reap
reper
reared
reele
rearing
reapers
whatja
habe
haitian
dok
dober
doping
doorman
##idger
##ghh
##lding
gob
goober
shet
shun
shane
shyster
shilling
shifty
##alou
forear
forci
forsy
foraging
##imating
donn
donate
knick
knead
knaps
stam
stil
stry
stem
staging
stigma
stellar
stalin
lias
lire
lira
livest
##seps
##icents
nodd
##adas
##adilla
##amines
##antha
##ente
##iller
##illary
##eeesus
cancoon
withhe
butting
##alle
##lysis
nec
neh
nebble
nepal
##cea
soong
abil
abrupt
##terman
##ods
outman
##ctomy
asthm
priss
##stown
##stones
##string
gothic
fray
framing
chul
chaps
chung
chipping
chases
chiba
chatted
upro
upward
upwards
uphill
tro
trig
trach
trape
tromb
trina
trench
trini
trays
trudy
trenton
troi
##opoul
hereabouts
suk
sulf
suave
suzy
##ellan
##ieged
##ieking
##anders
##ppies
deke
dept
depr
deport
debs
dehaven
wholly
welly
somewheres
herding
hermit
herpes
hermann
hershe
rightly
alors
aloud
alarming
##ilin
##ilot
whys
saun
mania
loathing
gooder
pluck
plath
plated
plunder
plendid
plucky
usa
timet
##isti
##isto
##istrib
##raw
##raught
##ractor
##raps
##oso
##osable
seance
seared
seizes
seams
exude
##olis
##olorate
##amels
aria
willough
willful
willows
complement
comfy
##astructure
##endler
##abre
##aboo
##abond
leto
##ickering
meanness
##obs
##obin
##obites
spas
spea
spate
spose
spide
spire
spouse
spared
spicy
spurt
##nail
##naissance
conning
thang
##itte
twain
twig
tween
tweet
twenny
carne
carbo
caramels
amer
drake
drows
drugg
dredge
droning
takeoff
clipped
clicked
clanton
cloudy
leper
callers
ency
needin
pel
peony
overman
overcoat
overpay
overcoats
betroth
mrph
unch
unself
unint
unful
unans
unmar
unborn
unrest
unjust
unbrid
quail
quacks
quibble
bystand
bygones
moham
mofet
blum
blower
blitz
blanche
intending
mugg
mugging
muggers
##agio
wondr
marlin
marina
marmont
##thar
sciss
scans
scorn
scums
scuba
scuttle
##elon
##elic
##elcom
##elberger
co2
coot
coors
coax
cogn
coaster
coleman
##reated
##reatic
##isson
##issants
hudd
hubr
hubby
undes
yearn
godamn
godammit
belushi
grump
gringo
sorrier
hellfire
helium
roving
wai
wail
waffles
findin
##actions
imelda
lifeguard
longdale
remus
removes
emig
emlee
mais
mapp
mauled
maelcom
muster
stills
cron
crenshaw
waiters
waitamin
##angie
girly
pogo
pooty
##assic
thrive
thresher
elastic
elwell
elmo
elsie
eloped
probabilities
swish
swenson
bigtime
bigfoot
smitten
smears
##oodles
adject
adler
adored
minnie
hoist
hochm
realities
realistically
boyle
perd
perv
lao
laven
lazz
launder
monarch
badass
badness
badlands
##ixt
##acter
flaws
floppy
stoppin
playmate
playoffs
secular
rung
runt
##ousel
busi
##ordained
deadlier
hearings
disem
dispense
disorders
fauc
##ulle
##quille
##ankment
stubs
strive
stride
strides
fatherly
##ansman
##shirt
headcase
##othec
##ekiel
##lemate
morelli
resh
resolved
interim
interven
crapped
crafty
parch
paragon
paramus
insid
insider
proff
prozac
schle
schimmel
boff
toni
sliding
slogan
recap
recital
charisma
warhol
commode
hurries
##pennin
##rocessor
gluck
glock
gluc
glitter
polished
clears
finances
finlay
walkway
walkman
attica
teh
teard
prevision
previs
daunt
dazzled
hundredth
invincible
comparing
component
meng
desist
desired
desider
terra
harem
harald
harming
harbin
harvester
sitcoms
tenants
tenacious
##zyk
##zyns
endor
farfetched
pavil
paxcow
schooled
damnable
shoved
prescri
doctorate
edgy
dollface
##linger
checkpoint
countin
relive
relies
wantsa
darren
dargus
thousan
bookings
excite
excav
gunman
hoto
promisc
promoting
beauties
breakaway
caved
cauc
capped
hurtful
evy
evap
biller
billed
billie
setter
##nessy
apip
apost
apothec
genna
genoc
speer
##oston
bullock
bullying
bulleth
hearty
heartbreak
humores
exploding
##nocy
indel
indirect
##ierre
##azzo
##ontal
colette
##ussions
symington
factories
airk
airway
delia
engrams
hungo
blackie
##anez
firearm
firefight
starvation
honeycutt
steers
discs
discont
discoura
##enser
##itsu
retires
##avity
pictorial
benzed
newslet
sicker
collage
collaps
collabor
snub
defcon
##ologies
fellers
dogshit
burp
buries
burdens
robots
patten
patricide
grandeur
regress
regina
regulated
touche
winos
arranges
straits
stravan
artem
droppen
stupidly
sweetness
petite
jimbo
legate
suspense
susceptible
submission
substit
cures
curses
hanger
hangman
sisterly
##lining
magellan
redes
redford
redfield
redec
redistrib
##msford
err
errors
samantha
nato
natured
##hhhhh
safehouse
muscular
studsy
raind
rajee
refit
refug
prophe
propulsion
proposals
midter
##ysm
##ysical
classification
ballsy
impet
imposition
impunity
impregn
##olutions
transat
transist
transship
transactions
frontal
visually
sellout
distraught
##idermy
radiant
radcliffe
cools
cooled
buckets
buckingham
favorable
yorker
girlsc
protomatter
humanoid
specialize
specialized
specializes
entom
freb
fremen
informer
informing
mascul
owing
typed
tyrant
imaginations
psychologists
squander
squashed
brainless
brainwaves
##rami
besieged
darko
centimeters
topol
merr
merge
merits
mercer
mermaid
meridian
meringue
pastrami
kissy
kissin
operators
fairest
fairness
viii
privates
##ocam
martie
paulson
hospitalized
##psk
quicksand
purge
superp
supergirl
superbowl
blowtor
danbur
danielle
stickler
##zzler
beginnin
parka
parkin
parkers
systematically
palest
palind
paloma
##heit
##onese
##eedle
baggy
considerin
tripe
majorly
misqu
shortchanged
clocked
clockworks
burner
burnett
burnham
treborn
ordained
deviate
crypt
papercl
chickie
casually
valets
larch
laramie
##mael
swearing
telepath
gara
garcia
##meg
bluebell
packaging
faults
rancher
growed
solita
cabdriver
diva
demure
histories
practiced
##rica
brah
braver
bravery
jumpin
sidra
junot
##grounds
goldmouth
goldoni
lunching
michaelson
futterman
denomin
crossover
crosswalk
footing
turkeys
hidin
##ikshank
sherm
risa
sanders
sandbag
formation
layaway
dunes
screwdriver
detecting
lowery
responsive
pisser
goodbyes
floorboards
armaged
jailer
##berspace
welcoming
icebox
occured
hallo
woodstock
##ringe
ninas
cigli
campin
##masters
sadist
sadder
rommel
romeriz
splashing
##ursion
healer
##ointed
fredrica
fillin
folsom
decidedly
travelin
##atician
dumbarton
empirical
verification
veracity
vermin
visitin
lugged
requiring
##ographing
##loom
evelda
southland
modem
modems
cookin
cooksey
##imentary
coloring
coloreds
macd
sanitary
postage
postman
investigatin
wildly
wildcat
labrador
amazin
##annn
prayin
survives
##ooner
sailboat
addressing
antagon
digits
corrective
hola
impossibility
obsessions
obsessing
##laus
##laid
custard
fasil
creme
##fucks
##fucking
planetary
bandage
vacate
vacations
vacancy
positioned
spiro
comforted
pining
pinching
mcn
juices
exceeds
audit
smokers
taxidermy
faithfully
henried
organizing
leeman
panhand
panicking
batshit
admirers
melon
melvins
fantastically
lamas
cheapsk
wheeling
jamming
malone
malarkey
portfol
conditioned
langtry
langenk
sarek
scarlet
nursemaid
succession
swims
swimmers
precurs
crowe
browning
massing
bodwin
bodwins
harmon
weakest
##certing
attractions
stocking
lyc
lesseps
magicians
ghostbuster
copycat
objectivity
cornerstone
journals
softball
##ophile
graders
breathed
switchbl
rapists
sighting
lucifer
preferably
yoha
ugliest
urb
urinate
hambone
bonaf
bonnet
videocam
discovering
discoveries
oliv
lloyds
seatbelt
drying
brighter
angl
shrine
shrugs
shrieking
chaise
lindfar
toured
statistically
gardening
krull
krinkle
familiarize
eastwood
airports
gambled
rabies
yeast
##cusable
travelers
revived
revlon
shhhhhhh
sociological
societies
militant
reacted
euro
energize
cycles
cyberspace
mcclane
wilma
cooperated
stormy
stormed
snowm
snowing
sinful
11th
corral
meatball
loudspeak
bumstead
accorded
researching
magnets
cornfl
matusch
matisti
moby
mobster
kirin
springing
springsteen
quoted
nautical
referenced
stewards
chemist
chemco
buffums
gravely
morty
mortar
mortem
##olesence
princesses
swelling
lapdog
shameful
18th
lisette
desperado
encryption
lenape
cartons
cartography
maternal
cabinets
nutrit
nutmeg
albino
pinkus
activation
leda
trailing
peeked
insisting
entertainers
woodsman
fabri
124
12th
rhetor
dirtbag
rodent
safari
illegals
briefing
antihist
dentists
disposable
transference
fascism
fascination
fascinates
sedition
voight
voort
hollanda
methinks
materialistic
universally
religios
experimentation
hypnocy
rona
halbrook
geary
optic
thorkel
##cloped
drowns
embell
embraced
embankment
journalistic
hooves
implicated
cheroke
cherries
horrified
cancelling
recovers
pussyfoot
fashionable
inventing
vaude
rewarding
shaddup
commercially
incidentals
reckoning
hoboes
libraries
cynics
counterp
clouded
2500
predators
sematary
bartlett
liberation
liberator
hungary
dealey
micmac
shaquille
chewbac
grierson
grizz
griping
wrecking
wreckage
influences
qualen
eliza
ragnar
chamdo
vesci
demonic
bailiff
nursed
adjour
oslo
surgically
duder
katra
launching
pornographic
exercised
confessing
linking
lizards
tentative
winged
certifiable
argumentative
gigs
tagging
exchanging
focusing
etat
cruikshank
laboratories
instinctively
jungles
dissolves
pedest
cruelest
claudette
cagey
##know
##blood
virtuous
disturbances
143
flagpole
reconfig
reconnaissance
unbecoming
struggles
struggled
dykes
lynched
godsakes
literal
##ishers
paco
restrict
alternator
innuendo
132
130
134
211
rebut
supplying
surrendered
dwyer
declaring
cavello
charted
seekers
sewage
405
cheeky
cheeba
triang
triads
popsicle
columnist
17th
cuisin
hanover
storing
captivity
refridger
geezer
athens
consequently
palmers
anthrop
cantonese
##marks
grasshop
feverish
scrabble
stressing
ranked
israeli
stalled
defeating
defeats
laundering
tremors
houstan
hutt
migrate
channeling
bends
humping
coaches
dismal
detonators
22nd
analytic
furnished
jurassic
##euver
christianity
conventional
mysteriously
anesthet
1965
1968
1966
vegetation
criticizing
dutton
tactic
##onnay
lionheart
fondness
spraying
disciplines
rossi
rosson
injector
injection
rejects
shubert
neurologist
plateau
cranking
prosecutors
235
orchards
orchids
drilled
maniacal
persuasion
exhaustion
siree
anchored
outlived
trippy
grammar
sentimentality
narrowed
kingsley
unreported
repairing
dynamic
hysterics
mandy
shithouse
exhibits
folklore
nicht
tatopoul
brutally
reflections
violinist
gyges
gynde
puddle
inherent
reinvent
interrogated
exploits
mossad
warehouses
hemis
hemogl
decorum
kali
weighed
kingdoms
molecule
fussy
kendal
resentment
klansman
granada
distressing
egomaniac
vibrant
##handed
sumatra
effectively
fishermen
mongoose
mongrel
ventilation
simplest
hanson
bronch
unexpl
historically
cosmetics
dismissal
perpetuate
clemency
brenners
hallucin
crusade
glenmor
breeders
linear
aspirate
aspirins
tramer
slams
1930
1937
podium
outsiders
tragically
harassed
280
disguised
brewster
narcissism
4000
caterers
tacky
abdul
insightful
transmitters
irreparable
dali
gaius
inkling
ingenuity
feathered
manufactured
dingus
pendant
##estraum
unwind
unwanted
mahal
encounters
nicholson
correspondence
overruled
waxworks
evacuation
whooping
converter
perverts
electrocut
keenest
rudimentary
vowed
vaginal
vagabond
flirtation
1948
1946
triumphal
314
oozing
sanctimon
diverted
pancake
pancreatic
proteins
malfunctioning
pamph
flavored
strolling
fingernail
navigate
hirosh
lysine
capsules
evaluations
1957
1953
horseshoe
hartdeg
strands
jeopardizing
departing
portraits
scrubbing
dominion
dominican
stabilized
corrupted
422
dolby
dolphin
righteousness
embezzler
verdado
constructive
dispatcher
manifestation
##rrr
trumpets
extermination
schizoid
installation
discreetly
shockingly
##aaaaaaaaaaaaaaaa
botox
nudes
ramparts
antonucci
reversal
brasil
waldorf
mmmmmmmmmmm
sleazebag
adoption
obeying
yakuza
inexcusable
mayhap
sculptor
disruptors
aqui
fertility
siph
sshhh
heirloom
offenders
removing
croissants
inflamed
distributed
tormented
geraldo
accelerate
aleck
epidural
delusional
deprivation
umbil
etcetera
auburn
authors
##hydrates
tolch
scruffy
deserting
deserters
babysitting
##heimer
juanito
fenner
peaked
##etzky
shabby
chunks
trifles
orgies
spontaneously
enchantment
eloi
prevails
relayed
suffocate
skepticism
cushman
rivets
assessment
suppliers
resemble
reconsidered
furiously
observing
reinforcement
bicar
dwelling
fernet
conveyor
protocols
revolting
refreshment
65532
pansy
pronounce
monstrosity
blacksmiths
warts
updated
grinding
persecuted
barfed
liebestraum
profoundly
distinguish
apprehend
1920
bayonets
allegedly
corsica
nadine
reefer
plastered
blurry
newlyweds
monumentally
infrastructure
regrettably
crematorium
massacres
foreseen
chastain
chelmsford
overloaded
transformation
supervising
cautiously
bolsheviks
63rd
sizable
wiggle
twinkie
snacky
neglecting
mcgrud
dottore
lacey
orbiting
arraignment
overtake
mohra
griev
wahoo
oldsmobile
dispensation
preceded
tensions
incinerate
illustrious
encourages
hypnos
oooooh
mushrooms
ibm
nourish
rutag
tessier
tessio
vindication
alfonse
plagued
invaluable
infatuated
freezes
singularity
psychedelic
counselling
reconciliation
imperfections
fonzie
lurid
lurking
overalls
unimagin
unheard
delaneys
uncertainty
gymnastics
istanbul
griffith
elitism
airspace
squeaky
mercier
seagulls
norwegians
bootleggers
synchronize
747
censor
dmz
kyo
stalemate
nosing
chanting
compressed
slugger
awakened
prodigal
taxpayers
rearrange
rearranged
polymerized
polymerization
carnivores
stimulant
avec
dusk
pomona
rhino
ucla
presto
prestige
delegates
bridesmaid
quellek
marginal
perversions
barricade
discrimination
discriminated
bensonhurst
legislation
refueling
uncovered
exceedingly
diminut
acquisitions
dismantled
ezekiel
kampff
semitism
arterial
brothel
blossom
swarthy
slushee
glossy
pauly
pauley
indifference
borneo
corroborate
enhancement
eichmann
eichelberger
fainting
kamal
##calls
inept
shmuck
trendy
ornith
seismic
backdrafts
smurfs
slummin
figurin
decapitation
incestuous
snifter
snifters
owwww
deceitful
shawnee
bereaved
euph
fouled
faye
looph
mishap
ticino
vichy
withholding
hermaphrod
cliché
overhearing
adolesc
promptly
disconcerting
requisite
mulvaney
apricots
insomnolesence
gigglepuss
exhilarating
disorientation
ncic
tavis
viper
rejoin
welded
nodding
orsini
browsing
afghanistan
scattering
wrinkled
sorcerer
interstellar
yawp
breakthrough
bedevere
firecrackers
incubation
inconsist
calibers
subsequently
freckles
acrobat
correlate
malaysian
berkowitz
tiptoe
manchurian
cenobites
iguana
zealand
##osystem
spokesman
bladder
recombinant
appendix
commissar
telemetry
harkonnens
decompression
humphrey
snorri
piranha
bunghole
rebuilt
zeppelin
manslaughterer
arbitrary
aphrodite
jamaica
jeeeeeeesus
kangaroo
nathalie
oglala
wrecks
##building
##animous
toscanini
heinrich
hemmingway
deetzes
mangled
arsenal
clippings
moffit
marjorie
maccarron
cristal
disqualify
resilient
indebted
sydney
submersible
medallion
sunflowers
caspian
affidavit
demerol
traveller
physiological
taxicab
reproach
unforgivable
hematoma
caterpillar
botanical
ultimatum
grimsrud
adventurous
contemporary
recycling
trychticholorate
mertin
ossining
sallah
aneurysm
tricorder
herodotus
alvarez
ohmigod
britches
uncharacter
grotty
grigory
swhati
mondrian
disdain
grandkids
dickinson
terrestrial
foreclose
surrendering
dumptruck
boomerang
aeroplane
bloomingdale
chiropractor
neanderthal
scapegoat
presbyterian
aorta
dardis
eileen
egelhoff
fenster
fhloston
gesserit
gorsky
iunno
izzat
kestenbaum
kildare
koehler
krylov
nirdlinger
oodles
ponsonby
ritalin
sforza
toupee
tazinari
vannacutt
wesson
yadda
thalaron
whorfin
anacott
inaccur
reelection
dobermans
forcibly
forsythe
knapsack
nodded
withheld
nebbleman
abilene
outmaneuver
chulo
uproar
trapeze
trombone
deprive
willoughby
spidey
carbohydrates
drowsiness
encycloped
overpaying
betrothed
unselfish
unfulf
unanswered
unmarried
unbridled
bystanders
mohammed
scissors
hubris
adjectives
lazzaro
schimmelpennin
dauntless
##zynski
pavilion
caucasian
apothecary
humoresque
hungover
benzedrine
newsletter
rajeev
prophecy
impregnable
blowtorch
solitaire
armageddon
cigliuti
portfolio
langenkamp
switchblade
lindfarne
matuschka
nutritious
hollandaise
hypnocyl
chewbacca
ragnarok
cuisinart
refridgerator
grasshopper
tatopoulos
hemoglobin
glenmorangie
sanctimonious
hartdegen
655321
egelhoffer
2nd
88
apl
aides
aka
aaaaa
aurel
bons
bouch
bau
bakin
bitty
bartha
banners
boodles
cay
cil
cada
dion
dink
ditt
dents
dual
dane
delle
derm
dreg
durned
dildo
ew
ena
elf
eure
eons
fop
[...]
